fffffcaa fffffcb6 17c ffffffac fffffd92 fffff823 fffffa7f fffffdea fffffbdb fffff8cb fffff84b fffff7da 1071 136c 2b8 fffffc2b fffffde6 fffffc60 fffff8b2 912 703 336 81b bb fffffc3a 434 fffffa99 6d0 48 6cb 51e fffff815 fffff894 ffffecfb ffffe13c ffffef17 fffffa09 183d 1b56 fffff3a1 ffffc7b1 9d3 fffff245 ffffb230 ffff9055 ffffa58c ffffd374 1660 690 1815 ffffdd65 ffffe769 47d fffff719 fffffa65 cc fffffe11 513 fffffdd0 fffff481 a82 39e6 446b 278e 26b2 5e21 7645 6542 1968 ffffe9e7 ffffb2bd ffff8aed ffff70f4 ffff5b25 ffff821f 2ee2 6e9e 9593 7325 27de d4f fffffa1b fffff83f 7a5 830 fffffcef fffffe9c ffffc757 ffffd20a 1bbb 54ac 36bb 2c87 5e90 5400 361e ffffde59 ffffa59c ffff94fb ffff8274 ffff804f ffff8b1e ffffa8fb 13be 28ee 1280 cb7 4e05 6f4b 1c2a fffff767 650 5e6 415 330 fffffae3 213f 42e2 6f0 f60 1814 2ca2 2300 1157 ece ffffba03 ffff8528 ffff71b1 ffff876c ffffa9d0 ffffecca 53f4 4b8e 34d5 1e7c 31cb ffffe1e0 ffffafa2 ffffed33 d9b ffffff17 fffffd4e 1081 c4c fffff72a 444b 400b 1baf 1c5d 6b22 5333 fffff5cc ffffde8b ffff7348 ffff3858 ffff6d0c ffffcace 10dc 3b8c 2f28 868 b52 fffff5f3 12a4 1480 ffffdc60 a52 1646 fffff94c 662 15e2 18cf 23c3 494f 3639 2965 282d 2403 769 427 ffffe865 ffff7014 ffff1ad6 ffff7c0f ffffe31c 4cc1 59fc 4952 3434 fffffeb5 fffff9bc c43 fffff3fb eba 280a 1662 de0 ffffe9f5 2df5 2511 2d2d 37a1 fffffad7 be0 fffff124 32c d35 72d ffffcc28 ffff792f ffff4f2e ffffb186 1873 6507 5bd8 49d4 2979 15bf aa6 da8 ffffe54e ffffe91e 2d7f 1a05 2cb7 575 54ec 3ded 4c62 1bab fffff84b e43 fffffa75 2dca 1a7c 1aae ffffd922 ffff7530 ffff4f0a ffffacab 2d2f 73cd 5470 24a8 fffff998 ffffff2c fffff9cb ffffeda6 ffffc515 fffffde7 ffffd2b8 ffffe2ab 2235 3dae 326c 261c 52b3 1453 84a c87 1dc4 4acf 279f 104c ffffe28f ffff730f ffff4bcf ffffc89e 6683 707d 428b fd7 10cd 6b ffffea9f ffffeebb fffff1b2 ffffefb8 ffffc696 ffffde62 26df 6d26 48be 1c14 2518 16c9 ffffd731 fffff4ce 1ffc 48b2 29ae 12ff ffffab08 ffff5bc8 ffff7eff 13be 717a 701f 2e7e 2184 52e 20c4 15dd ffffeecb 1a84 4914 15cd ffffe990 41a4 621b 56b9 3b4e 69f 931 fffff76d ffffffbf f9b 1e32 38d ffffe3fe ffffb614 ffffac03 ffffccc3 41d3 85b2 6c81 4f36 be6 929 1720 fffffa6f fffff642 fffff0a1 243d 1fa4 128f 1128 48c4 3df5 3906 ffffef53 368 10ea 25c0 1f3f 239 fffff95a fffff0bf ffffd155 ffffbb40 ffffe099 2009 578c 4953 2c78 fffff4fb 139 2459 1308 ffffdd14 ffffed7a fffffffc 1b17 2327 7e7 2d85 2f3d 2bf5 17ed 1b6e 1d94 11d0 63c ffffff7e fffff7c5 ffffd28e ffff9fe7 ffffae36 ffffd659 e38 19c1 2463 fffff8f1 ffffe768 19ac 496c 327 ffffe933 ffffdf21 1dd0 fffffaa7 187d 514 cb6 1e5d 1ece 44ab 3cb0 fffff842 450 6fc 1d4d bac ffffeb48 ffffbaeb ffffc509 fffff1dc bd3 1b63 1329 ffffdf36 1359 3161 1ef8 ef7 2559 11f 1bb0 fffff6b3 fffffd68 1b24 13cc 35fc ece 1299 ffffe583 ffffda3e 1bfa 1aef 1126 b10 124 fffff11d 3b3 ffffebd3 ef1 ede 5ed ffffecce 330 21bf 161d 3316 15e9 ffffc6cf ffffe7b8 fffff173 661 dfa 11f9 fffff677 ffffd34e fffff5be ffffe307 ffffff7f 10ec 1d11 b5c ffffd837 ffffdae5 ffffeedb fffffcac 561 12a8 fffff4cf ffffe3ea fffffaa7 2bb 624 2d75 1c2 ffffdeaf af9 fffff823 fffff9c6 ffffeb92 596 2ac8 ffffd924 ffffea16 1f67 2317 ffffe7d9 ffffee1c ffffeaab ffffece4 ffffeed8 ffffff2b ffffe46f ffffe0e0 ffffe643 fffff821 ffffff9d ffffde9d 2110 ffffeb52 1d6 c30 fffff106 fffff026 ffffdde2 482 1181 ffffed17 ffffe744 45fa ffffefba ffffedf3 166a fffffba0 ffffb1fc ffffdf58 89 29e fffffd38 1d2d e6e fffff06e ffffd7ae fffff12d 70c ffffed3e 151c fffff551 fffff2d4 fffffa2d ffffc0f3 ffffb044 ffffd079 ffffec22 fffff5dd 4f5 1d41 3763 fffffa70 377 ffffef12 ffffd6d9 ffffe3be 7e3 fffff394 4e1 68a f0e ffffd9bb ffffdb8d ffffe334 ffffe967 fffffa60 fffffa65 fffff986 fffffc5e ffffeea2 ffffc8fb ffff8f27 ffffc932 5d0 ffffcc79 ffffe5a1 2065 42a 1f8e fffff2c0 5ce ffffdd36 ffffbc0d ffffd56a ffffdd70 ffffedaa 2b9 180b 3af 859 ffffd476 1d3 82 ffffe640 bb6 1c75 fffffac5 ffffddf2 ffffd127 ffffcdc5 ffffe8ab ffffea8b ffffc1d9 ffffe0e3 175e 12ea 1533 ffffdbff fffff916 2f0b 7c fffffeec fffff413 fffff89b 570 1fe0 ca5 fffff034 ffffefa1 ffffdea0 ffffeeae fffffa7a 19e8 fffff0fd ffffed78 fffffe1a 774 7a4 ffffe6ff 142c ffffc878 32a3 170 19be 1dee ffffce44 ffffa9e7 578 301e 25c1 1b62 a02 bf fffff91d fffff364 ffffeba8 15e4 fffff183 fffffbf3 fffff320 fffff66e ffffd753 ffffd101 ffffe439 8ea ffffffcc ffffdf9e 12be 8f9 411c 7c1 ffffff04 fffff8ac ffffbbd2 ffff9833 cfd 2044 2b15 3945 ffffe889 fffff8e6 1e ffffeb2e 4c2 9b6 ffffe5e3 fffff88b 437 ffffeb18 fffff3bc ffffe49d ffffe9e2 7b8 ffffdb3a ffffbc2a fffff596 b01 2f61 393 ed 48d fffffd55 1443 36fb 62fd 310b 70a fffff20c 4ed ffffe205 ffffd89c 89c 1d9a fffff115 ffffec1c fffff8a8 fffffd52 4ac ffffe8ea fffff49e ffffef28 ffffdc33 ffffc13c ffffdba2 1480 fffffcd8 fffffe7d 7d1 fffffc82 ffffc9c8 3696 4a67 2901 fffff0ac ffffd971 fffff993 ffffe8e2 ffffdb30 ffffe4b0 1e04 38b4 fffffc86 82 2473 b30 fffff594 ffffcf46 ffffaf33 ffffb102 ffffc416 3ee ffffeba8 fffff90e 76c 61c 78d 4ec 5b9 ffffebc5 fffff0a4 ffffff45 fffff4d3 fffff8e4 ffffc445 ffff9156 ffffa7f7 ffffe02d fffffc0b ffffea3f ffffb280 ffffe7d0 fffff4ed ffffe9e5 ffffef06 ffffdafa ffffc2cd ffffcc8a fffff194 ffffd2ab ffffde04 11fb fffffdc9 fffff6ff 55 fffff85b fffff7fb 73b 4b20 5e30 2dd6 2c2b 2da1 2823 cda 1795 f66 784f a75 1558 279d 4ca2 c75 fdd ec1 2fd9 2976 2d2b fffff830 fffff773 190 f4 5fe fffff77a 16c fffffa69 327 fffff988 fffff6fa 762 fffffc18 460 22d 518 fffffed3 fffffa5f fffffd9c fffffe00 695 fffff9bf fffffaf6 4e0 fffffffc 354 fffffb1d 3cf fffffce9 fffffd67 fffffe07 fffffdef 621 fffff8e4 4f9 303 fffffc1a fffffa39 fffff874 ffffe51e fffff998 ffffe087 ffffdb3f ffffedc4 ffffe5fd ffffd65a ffffe019 ffffe796 ffffe746 ffffedf3 ffffe8f7 ffffeeeb ffffef61 fffff0ee ffffe895 ffffec33 3ad fffffd30 3ac 736 38d fffffe35 fffffd98 fffff1d0 ffffe212 ffffe5f5 ffffe42c ffffb1a9 ffffb298 ffff98c1 ffff86a3 ffff8b1e ffff6080 ffff5f84 ffff6ca8 ffffac90 ffffc1dc ffffefcf f75 ced 1892 41c fffff860 ffffeb3f fffff258 41 46c 6e7 913 fffff99c 1fc3 ffffff4c ffffe930 ffffe96d fffff45e ffffd75d ffffa2cf ffff9166 ffff9962 ffffa9e7 ffffc316 ffffd412 ffffd5d6 518 ffffde31 ffffd076 ffffdd13 ffffcabc 1c0c 391e 1f54 ffffffd2 fffff2f9 ffffdb00 ffffe267 fffffc82 fffffddc 1210 3861 423e 1b65 31d 23a8 134b ffffd430 ffffca2a 1242 2920 1480 2af fffff60c 213e 1c90 d17 1c8c 1bb8 17f3 2541 127b 2799 5300 54e4 24c1 c95 2e5 8e2 2800 fffff450 fffff1ae 30a2 5f86 13e3 ffffee18 13d8 1fde 1095 20c9 2281 63b 81b 2964 237f ffffffb4 fffff165 8e1 1507 1d52 11fd 2d16 53df 25f3 e9b fffffab1 1111 1813 ffffe8e6 173d 8049 3d39 1e0e 2085 17dc 18f5 15ba 1fc3 fffffa1a ffffe7dc fffffbd6 7d8 fffff260 ffffd1fa ffffe675 ffffe6a5 ffffcdcc fffffda1 2c86 36f7 4d7b 5aaf 1702 599 ffffeaf1 373e 15da 1aab 4b93 2b97 39ee 2a3b 1c8a 2382 ffffffd7 ffffd42f ffffc216 ffffd562 ffffe379 ffffe7a9 ffffe3f0 ffffc6c2 ffffddd7 ffffe263 ffffe28a 1a95 2d48 3549 5951 804a 1f45 264 ffffd20e 403b 57d1 2557 44f3 27ab 2fa4 1157 21cf eb4 fffffa6c fffff3b8 ffffef86 ffffcf02 ffffdffd ffffd1a2 ffffd899 73f fffffb1a 5d6 12f3 4773 419f 72fd b840 7088 38da 23c6 ffffedc5 332f 5a87 371c aef 1da6 1d2a 1af1 1785 fffff753 fffff5d6 fffff7f9 fffff04f ffffe244 ffffc700 ffffe69e fffffd39 ffffefe0 fffffb57 2857 59c2 6d8d 45fa 6240 d1cf 9e00 fd1 13b4 fffffb41 1afe 4b72 687d fffff404 fffffbc7 19a2 223f 1c8f 15b6 fffffaa2 1b87 1ba ffffdb81 ffffee62 ffffdc98 ffffe428 fffff79d 228d 43e9 402f 3b40 2d48 4adc 8d5e a76c 1062 2bcd 162 2342 6692 56de 10e8 d21 1afc 179d 23eb df7 1e61 442f 9e4 ffffff1b fffff8a5 ffffdc80 619 f29 2b0b 334a 1540 bc9 1606 15d5 5f5e 7475 2720 ce2 1970 1622 331d 1f4b 2820 1313 353e 20b2 174e 3fc6 3d54 5c05 3aac 136e a59 fffff9d8 10c4 e6a 2cc3 45e9 17f2 fffff11c ffffde31 ffffa55a ffffe9d8 2e9 ffffd8ed 15b1 11c7 efa 2f47 fffffb1d 34ee 17c5 320a 4946 4110 449d 6339 6114 339a 2982 22dc 1601 5d5 8ec 16b0 39ef eda ffffe917 ffffd5e1 ffffa67c ffffb7aa ffffb167 ffffe27d 237e 2206 150c a29 d9c 227f 144f 4f5 18e8 3d31 317a 3eed 42ba 434b 5ec5 4579 2321 1d18 fffff9f1 fffffc33 ffffebb0 ffffd7c6 fffff848 fffff7b4 fffff79b ffffd98c ffffa8ae ffffdbfb 1f2d 21d2 5b8f fffff924 ffffc5d2 ffffa7a3 ffffc87e ffffbb12 ffffd4e1 c7 12f0 1641 2f96 5200 6da4 48f2 144a fffff4a9 ffffd8a2 ffffccb0 ffffd9d5 ffffefba 26b3 3b03 67b ffffbd89 ffffb6cc 500 ffffe7c1 2580 176a ffffcb0f ffff8675 ffff72f1 ffff7244 ffff756c ffff61c1 ffff8a96 ffffa38f ffffb930 1959 45d4 5a2b 419c 405 fffff334 ffffd04b ffffc6fd ffffb243 fffff24e dd2 cf5 198 ffffa10d ffff9b30 2c4 6fe 2c8a e ffffc6fe ffffadd7 ffff6bff ffff9005 ffff5b32 ffff475c ffff60dc ffff5673 ffff7e4e ffffb136 ffffec27 15ba 1b81 0 ffffd7c5 ffffc114 ffffcda2 ffffcc6c 954 2b4 d20 1e5 ffffd107 ffffddbc cc4 ffffc9cf 1d66 ffffe885 1de1 ffffee37 ffffaf51 ffffbd7c ffff720d ffff72e5 ffffa462 ffffaa43 ffffab33 ffff7c38 ffffb981 fffff0ef ffffef83 ffffef02 ffffcf43 ffffc9e2 fffffa7e fffff6ae ffffed64 ffffe7c2 fffff240 30b ffffd889 b6b 934 80a 19ac fffff854 59bc 288f ffffe430 ffffced1 ffffcea8 ffffec59 ffffffcf fffff937 ffffb61b ffff8174 ffffb152 ffffebeb 152 2c5 fffff188 fffff1bd 5f ffffe853 ffffe451 ffffe142 15df fffff46e ffffde73 ffffb9f2 cb0 605 2e7b 1723 4ac4 372a fffff43f 1413 2122 428f 2d3e fb7 fffff2c7 ffffcdd1 ffffd4be b9f 34b0 8c3 1400 d3 ffffff1b ffffdfb7 ffffecfc 135b fd9 ffffe3e0 ffffb8f1 ffffb90c 1e34 a09 3f49 3fb5 174d 5431 2847 550d 4e2f 405c 1a33 f1a 1730 ac6 58f 1de9 2f5e 37d 141a fffffeae ffffda0e fffffd87 2429 fffff86b ffffe627 ffffd276 ffffb560 ffffd1de 20b 1531 1908 30a3 518 5304 1a38 2611 33aa 222b 9f6 2a2 1dda 4bf 3ec 18e1 19b4 a13 fffffe05 fffff5c0 178f 18d0 27e ffffeef0 ffffce3f ffffbb1e ffffddc7 6b2 fffffa6d 4a5 ffffff97 33ff 15f3 50bc 177a fffff9c1 615 fffff384 155f 1ee5 1006 459 20c6 1e7b 1b70 1407 171f ef5 bfd ffffe5d9 ffffcfd4 ffffb94b ffffbccc ffffc365 ffffd64d 2962 13d 556 226 1d0d 42dd 1dc2 2111 68f ffffe9ba fffff5af 1163 223e 3c2e 4ef ee 159d fffffb91 fffff8aa ffffcc53 ffffe57d 112f ffffeb35 ffffe374 d60 ffffdde4 ffffc6b7 ffffa5d1 ffffe240 fffffb54 fffff95c fffffd21 1424 fffff9c9 ffffe10c ffffd05b fffff0a9 fffff612 9cc 257c 3f96 2c7c 3924 44a2 fffff212 361 fffff0bd ffffd16f ffffe55c fffff6f7 273 2561 2c68 4d7d 1fb8 ffffe5d4 fffff795 fffff8c7 fffff83e fffffe11 2f2 ffffe403 ffffbf36 ffffc2f1 ffffc50a ffffb5ee ffffdcfc ffffd0c9 ffffddb1 18a9 1007 ffffed1c ffff8430 ffffc7e2 ffffc9d8 ffffbf73 ffffcffe ffffeefa ffffe74f ffffe003 ffffd07c ffffe620 778 d8f fffffb2d fffffef0 164 fffffe8d fffff7b2 5b9 3315 5775 210c 260 fffff856 ffffef13 ffffc8ef ffffcf2d ffffdd31 222f ffffbbde ffffd98e ffffe73c fffff195 ffffd73f ffffdb5e 645 2e3 71f 1046 fffffabf fffff85f fffff8dc fffff931 fffffff1 47a 537 504 6c1 fffffb44 fffffc37 531 e7 fffffd05 548 fffffaf1 b14 12ce fffff4b0 fffff421 fffff8be fffffa33 90e 919 fffffa5a 16e 46b 3e5 fffffd8e 7d2 3fd 322 8e7 36a fffff8b5 fffff73c a8a a11 fffffa62 fffffff3 fffffd86 16fd 4568 fffff913 fffff095 1522 36f0 ffffcdf9 ffffc843 ffffcfb9 3c42 39ab 323e 50c0 47e fffffd43 fffffa2c 498 fffff985 fffff8fa fffffc1e 296 1333 ffffebe1 ffffe38f 1bef fffffa08 f73 1644 8e7 2074 21e3 3b4f 4f8f 589e 26a8 7d4 383e 19c8 2d13 3b7e 8ea9 3ca4 27bd f5e 8f6 fffff954 fffffb1f fffffda5 fffffc1e 9a8 fffff229 fffffc4e fffff682 119 1d46 ffffe716 fffff146 1bf3 ffffff49 5aa 1ff9 2130 ffffd710 ffffebbb 2c44 fffffe5d 4b5 fffffd72 fffff8bb 54d fffffc6e ffffef04 fffff599 21 331 8b0 900 1d1 29ea fffff090 ffffc713 ffffd1ad fffffbe7 1928 2301 367d 195a 1b81 fffff965 ffffccc3 ffffb79f ffffd3b7 ffffd87f ffffd52d ffffee36 ffffe47c ffffb005 ffffd970 31af 2776 e96 fffff300 fffffd00 905 fffffa81 243f fffff0df ffffca10 ffffb2e7 ffffc554 ffffe698 22c7 270f 1432 b20 1f05 287 fffffa49 93e ffffed85 fffff7d1 ffffe7d2 ffffeaa9 ffffdb8d ffffab27 ffffb60e 129d 2683 ffffe402 ffffd97b 2aa 833 fffff81c 4b1e 3773 67d 1808 1a94 13d8 15ce ffffeacd ffffdf04 fffffaf7 84a 141c 1dd6 1427 fffff62c 17d9 7d2 fffff2d6 fffff5d2 ffffef90 ffffedc2 27ac 1c80 ffffdeb5 ffffbf55 ffffef07 9b 21c3 5c4a 40f2 18d0 102c 2c14 bf4 ffffe19c fffff369 376 f03 1526 766 fffffde6 fffffacf fffff83e 11b7 fffff096 ffffd4d3 fffff863 1b79 25e2 1fda 1da6 108 ffffffb8 ffffc28a ffffeffd 28aa 6f77 267a 47b0 48bc 1ea1 ffffdfb0 fffff773 927 991 14ea 15d5 8f8 fffffd72 ffffce9b ffffb01a ffffc42d ffffd606 ffffbd9a 8e5 23b4 d6b fffffd17 1142 774 ffffedb9 ffffcdb9 1a92 680a 254c 667 5961 56e5 fffff8ad ffffd4e8 ffffe7f9 ffffedc1 805 199a 19c9 1777 ffffe162 ffffcaad ffff94bf ffffaf6a ffffd5b5 ffffcaec fffffed7 c98 fffffd99 ffffe9c3 ffffe90b 10a3 ffffdabd ffffcba7 180c 823e 1001 ffffe5f0 41a4 3853 ffffed66 ffffdc9c fffff622 ffffef55 ffffef42 d0d fffffc96 fffff541 ffffe7af ffffd8ae ffffcd9f ffffd839 ffffde7b fffff1fc ffffeba9 5d9 fffff3e0 ffffbe19 ffffc262 75b ffffd25e ffffe540 3499 1cca 5c67 2f6b 1489 fffffd80 ffffe992 873 787 188 16e8 23d2 1380 ffffe6e9 ffffe3ff fffff843 fcf 78c 8e8 15f7 fffff35e ffffedcc ffffea3a ffffad3b ffff73b2 ffffc095 ffffc312 ffffef7e 2625 5a70 8356 36d7 177e ffffd763 ffffe205 4bc 2903 fffffa0c a82 45be 2b8d ffffee4d ffffe68e 1984 2493 981 2079 15f6 22a fffff42d fffff564 ffffaa1e ffff8b57 ffff96a3 ffffb9ac ffffde19 dd9 3b42 64a6 1a47 30e7 179 1243 1bcd 326 fffff072 15ab 196e 915 ffffd0c6 ffffdbfd df0 28f8 19a6 1714 ffffeab2 19 2fe4 fffff28a ffffa22b ffffa25f ffff977d ffffa0ba ffffe061 fffff1ec 14bd 4ba3 4390 47d1 206b 1e03 178c df6 1dde 29b6 fffff5f6 ffffd6fe ffffdd95 fffffa58 1800 40c7 38c8 27cd 26ee 2912 3326 1714 ffffed6d ffffb778 ffffcd90 ffff9c4a ffffe156 14ce 105 38e1 46d6 2919 fffff62d 33ea 1924 c88 108e 385e 11c4 ffffdd37 ffffc3cf ffffe829 2417 5021 5e7f 3ecf 31d7 2e95 4491 3f54 1939 ffffc146 ffffc298 ffffda08 fffffd51 2874 ffffe9b0 491 1a74 1d87 168d 48e4 4c40 27dd f5 b17 be9 ffffcd72 ffffa351 3d6 6f5d 5cc0 4ad4 3ae5 2dc1 1b6f 1421 4bb 73b ffffc2b4 ffff9340 ffff9865 ffffc73e 4e8 d5 2217 abc 1817 49 284e 3032 2bc4 fffff01f ffffe6ea ffffd365 ffff83d9 ffff905f 369a 8a4b 55f0 1dfd 3087 fffff366 ffffd395 ffffd2f3 ffffc7af ffffdf56 ffffb84c ffffa0ba ffffa8f3 ffffd1e4 ffffe720 55c 2b25 2bee 101a ffffe431 ffffe458 22df 801 ffffcca7 ffffa6cb ffff97d0 ffff7fca ffffb681 6504 627b 331c 268 fffff571 ffffc3a2 ffff8621 ffff955b ffff8662 ffffa3ee ffffba97 ffffd6f6 fffffc21 190f 51b 2392 fffffecf 3094 1eb5 fffffe35 476 1aed ffffed3a ffff9e27 ffff8a0a ffffa4fa ffff8283 ffffccd3 721c 7688 14e2 ffffd09b ffffcc02 ffffb047 ffff6399 ffff8061 ffff639e ffff87fd ffffae19 ffffe6aa fffff05f 1b36 355 3771 dd0 ffffed2f 382 175f ffffe0d0 ffffd0e5 ffffa2f6 ffff645f ffff486a ffff7cee ffffb119 fffffb51 7a9f 6149 2d10 80c ffffd896 ffffa380 ffff663c ffff960e ffff68b1 ffffa01f 34c 1744 e4c 1015 fffff746 ffffff79 fffff6cc ffffd7f0 fffff798 58e ffffc6f4 ffff9804 ffffc33f ffffa026 ffff836a ffff9fdf ffffe1a3 2694 53f3 41a2 3927 23f0 972 ffffd249 ffffbe82 ffffe3fd ffff9cb5 ffffbd08 3142 101a ffffef1b 5ce 863 fffff7ca ffffeb71 ffffd9f2 ffffffed ffffcfac ffffc56b ffffc88d fffff80c ffffd6bb ffffbce3 ffffa01d ffffe9c4 309b 3527 359e 2db3 2fae a25 fffffc63 ffffd731 fffff530 ffffb569 ffffc102 1a7b 148e fffff3b9 fffffa8d fffffe0b fffffc03 ffffed72 fffff388 ffffd9b8 ffffae76 ffffaf58 ffffa38a ffffd665 ffffd627 ffffcf48 ffffb974 ffffe8e0 fffff1e9 176c 102d 2493 24e0 ffffff65 451 ffffead8 2038 ffffd230 fffff8cd 9cd 1837 2a5e fffffca1 598 fffffdad fffff130 ffffd7d4 ffffd947 ffffc0c9 ffff8a70 ffffa7a1 ffffacca ffffd373 ffffc594 ffffd320 ffffcc63 ffffeda7 fffffd2d 1893 1241 27fe 11c1 fffffc9e ff1 35e9 f80 78a d3e 2e21 64f fffff93d fffff7d3 ffffff28 1b2b fffff159 ffffeed2 ffffcb7f ffffa9d7 ffff86b1 ffffd2b9 ffffd7d8 ffffd456 fffff053 fffffdcd fffff93c 3b52 1804 36c d64 29cd fffff57c 2eb9 2478 727 14ff 17dd ebb fffff58a 90d fffffac1 364 fffffc52 ffffff80 1a8e 3aa 2ef9 11f9 31c0 5be2 1c9d 1519 25e5 3461 5acb 6ad0 345b 1199 b5a 2ded 1d10 ae2 fffff8ab ffffe442 aa2 fffff85f fffffe8e fffffa76 fffff985 7ec 785 fffff98d 15d2 3890 5b7 fffffb92 9fc 520c 1fa8 1e7c 1995 6cf7 4c7b 4836 6782 956b 4e2e 2970 47c9 37b9 2314 7e5 3f3 195 fffffc7f 502 2de ffffff03 29b 356 4f3 fffff8ac 399 60f fffffa64 65d 61 fffff83e ffffffea 19a4 1527 1139 fffffc79 fffffc91 52b fffff8de ffffffc3 685 fffffb74 fffffc58 fffffc8f 4d0 fffff91a fffffc57 496 395 ffffffd4 267 fffffe38 2e3 46a 1090 2ca4 25ae a57 2881 39e9 3b7d ffffed1c 489 4182 38f5 25f0 fffff784 ffffef4b fffff66c 223 c32 68c fffff97d 18f fffff9e7 584 fffff9ff c3f fffffb0f ffffead3 ea2 1f2e 45a5 4005 564c 56ae 5ebf 7ee6 5792 3785 ffffef82 ffffe67f 759 ffffe0e2 ffffd235 ffffe422 fffffc51 a99 192b 204d 36 fffffaa3 fffffaf3 fffffcf4 2d2 3fc e18 fffff639 27ab 4842 8778 a400 7926 5256 5ad9 8ced 62ca 1582 ffffd916 ffffbadf ffff95bc ffff7ee9 ffff97d8 ffffc59a ffffd634 1b6d 1d7d fffffd78 ea9 69c fffffb7a 8f7 5ad 211b 1daa 3fb1 397b 3f71 5c47 6578 4346 b78 1c66 d3 ffffedf2 fffffbc0 ffffca8b ffff9049 ffff9528 ffffb757 ffff9f39 ffffd852 ffffe59a 6e2 8ac fffff6f5 884 129 2e2 5f8 fffffc10 fffffb01 2bab 504a fffff9fe fffff39e 1439 1ce2 f75 fffff769 fffff3ad fffff7c8 37e3 1be4 24f fffffb68 6a5 d0d fffff2ac fffff26b ffffc821 ffffe512 16c1 2a93 69b 86d 2db 181 181d 2659 2c1a 2e7d fffff10e ffffd969 ffffd9e3 fffffc09 fffff78a 31d6 3438 4af2 619f 6d87 7651 7264 5c38 406f ffffe829 ffffd445 ffffea62 ffffd6bd ffffbcac ffffba1a ffffebc3 2aa6 1359 fffffe21 31b1 2e9d 20e1 103f ffffd13e ffffd78b ffffe28c c9f 12c3 2ef7 424f 4b4b 6417 8665 8456 5a0a 1eea 121 ffffd225 ffffc7aa ffffe37a ffffdf9b ffff9a64 ffff8dc9 ffffb0a8 fffffc70 12d6 cd8 2fe5 31a7 3473 251c ffffe202 ffffc02d ffffee65 2711 1211 3ad9 324f 2180 4bb7 7037 450b e4e 311 201 28 ffffd753 ffffda95 fffffe42 ffffb75c ffffa77d ffffc53f 43 8fe 962 16bc 2fd9 489a 4225 ffffe814 22d 17ec 2618 252b 2e94 5ca 178e fffffbe0 fffff743 ffffe2ef ffffdfe1 8bd 19e0 26fe ffffee7f ffffb29d fffff28f ffffd9d3 ffffa8ba ffffd7f4 3e6 fffff922 8a8 3036 2422 5f9c 1ccc fffff745 3c97 87f 1469 96d ffffeb85 ffffd9b8 ffffb577 ffff9d76 ffff5521 ffff8adb fffff390 8a9 2833 2c2d 1d77 ffffcf7a fffff285 ffffe058 ffffab67 364 ffffeb4e ffffd704 42f 23b2 fffff917 2a86 2bf0 ffffef00 1751 ffffff8e ffffdbbc ffffd0a2 ffffb653 ffffb1a2 ffff7a4c ffff3a23 ffff4fe6 ffffdce6 10c 27d2 3f72 54f2 4509 3aa e3b ffffd769 ffffc210 fffffd0f ffffecba fffff4e2 844 271c fffff46f ffffec23 236b ffffd081 ffffd3eb ffffd987 ffffbedd ffff9f21 ffff928d ffff8d79 ffff425e ffff3e48 fffffdbb 31d2 12ad 2726 30e2 464b 2db5 ffffffc8 ffffeab4 ffffcdcc ffffcc6a fffff515 fffffb65 ffffef9b ffffe553 1874 fffff627 ffffed12 ffffdc9e ffffc0f0 ffffd542 ffffc3fb ffffbab9 ffffb7b4 ffffbe2f ffffaf3d ffffa69a ffffea39 21c0 14f1 1426 1bb3 d76 197f c3c ffffe210 ffffa02c ffffa8c2 ffffb579 ffffd2ed fffffea2 ffffffd4 fffff2a6 1ba2 4594 ffffd776 ffffc7c5 ffffa73a ffffe524 ffffe5ea ffffd0ca ffffc3c6 ffffce36 ffffe7b0 ffffe174 2536 210b 1b31 697 20 713 ffffd0d9 ffffe893 ffffd5aa ffffb5b2 ffffa78a ffffa108 ffffed7d 46ad 1790 fffffb8d 39b 5243 ffffd819 ffffe893 ffffd003 b78 fffff596 ffffe51d ffffd821 ffffe00c fffff63d fffff9c0 b55 1a01 217f 7de fffff667 4cc ffffc51c ffffbc33 ffffdf34 ffffdff1 ffffb054 ffffbbfe a9f 2ca9 bd0 7bb 13b5 3d8b fffffbd5 4a2 ffffee4a 1805 fffff29d ffffe247 ffffd946 fffff044 1ff6 e5f 1468 9ff 4b4 fffffc08 e94 ffffef6a ffffba7d ffffadd8 ffffc4ed fffff4b3 ffffb4cc ffffaddf 2f8 1fd9 16f3 674 2cd6 1a81 2eb6 3d55 19e2 fffffdca ffffe0f7 fffff3e8 fffff09e d1e 167e 375b 3c8d 1d97 b1f fffffd5c 168 ffffd167 ffffb1cc ffffb2c4 ffffb110 ffffaf70 ffff7ff4 ffff91c4 2a86 5463 3bed 5fa 1f6d 1926 3f06 5b8a 1209 28d fffff85d 82c 2d4 31f0 23bc bde 14e8 11f2 5dd 713 ffffeaae ffffd7d5 ffffce8c ffffc770 ffffcb50 ffffebb1 ffffcaaf ffffb98d 2cfd 32f2 2302 ffffeb4c 114 1991 429d 2579 b2f 70e fffffb2c fffffcac c1c 280d 167a 1374 837 fffff693 fffffa12 285 ffffe004 ffffe65d ffffe4f4 ffffea3c fffff9a6 fffffd4c ffffe589 ffffe7b1 769 7071 fffff851 fffffce6 1924 d2c 7f04 3e4e 758 ba0 1f48 fffffaa3 fffff0c3 98 6d4 fffff9cc fffffd2e fffffe00 ab7 90c ffffe83a fffffd6c 1d53 1063 4ad fffffc8c ffffd6c9 14e4 5e 58ed fffffed2 fffff1d1 19bb 342d 42ea 16ad ffffe7ea ffffdaa4 fffff3d1 ffffcc1e ffffcfe3 fffff82d ffffe9ac fffff4b7 fffff461 9a5 2bd 1101 8fa 1e9d 4edb 27e3 1891 18e2 ffffdfc2 b63 fffffdad df2 fffffa8f fffff843 fffff95c 5583 24d ffffe750 16a6 fffff31e ffffead0 ffffc33e ffffc6d0 ffffd2b8 ffffdb90 ffffe2cb ffffe179 1a5d 656 29c7 155e 13c3 332a 239b 1e74 1b02 842 1cf0 ffffde62 ffffe8af fffffaca 675 fffffc0e 5732 ffffea7b fffffc3c 33af 3918 356e fffff064 ffffb240 ffffc7bf ffffd96f ffffd583 ffffe9bc 444 264b 242f 2b01 1dcf 41d5 2acf 10b6 2c26 1497 16e5 ffffecd1 ffffef77 ffffff79 871 3e2 2ca1 77 8a00 6485 1f9a 19cf fffff03f ffffd22d ffffd8ae ffffe674 ffffefd6 fffffebb 22b 31a5 1835 229b fffffc34 120e 775 21b6 9a8 19b1 747e 3e82 1271 fffff792 fffff7a0 fffffb0e 20dc ffffdadb 1529 33e0 155e df5 4822 1f3d 2028 1ab5 3a32 147a 1a0f 19dd 318f 1567 3602 3840 3bce 1253 ffffe362 ffffef76 858 1eed 2000 fffff72d fffffa43 617 7a3 ed2 160 1842 321c 529b 8bf8 8e22 708b 4f22 52ed 5948 77c6 374b 8849 9d87 6fe7 5b05 652b 37f0 3859 1cdb ffffe8c5 168d fffffb21 fffff969 52e fffff77b 6eb fffffea8 29bb 39c4 3702 234a 23e7 295a 31f0 3342 2150 3cbe 614a 4fb7 5905 6cb3 3cad 2c0a 2151 1ee ffffea37 fffffd1c 597 3a2 fffffc40 5e7 ffffffe6 fffffdde 70f 281 fffffd87 ffffffb2 fffffdc7 ffffff3b 105 51 72e fffffddf fffff835 27 fffff94e fffffe42 66b ffffff12 d4 fffffaa9 82d b4 ec 802 916 880 ffffffc5 4d1 fffffc38 fffff872 4e4 261 5c8 ffffffef fffffe5e d42 28dd 1bd ffffe814 e56 1210 8ab fffff334 2fee d8f 949 13d3 fffff702 fffffc97 23fc 2d9f 576 32c 181 fffffbe6 725 38b 5b2 fffffeed 1e0b 1224 ffffe2fc ffffde3c ffffba31 ffffb574 ffff875f ffff985d ffffbae2 ffffb8fa ffffb79a ffffd1d6 ffffedff 1a28 fffffacf 984 1862 870 ffffb1fe ffffc093 ffffff70 ffffe715 ffffd7a1 7c4 33c 6d7 ffffffbe fffff40b 18c9 1e28 14fc fffff503 ffffd3c7 252e 16d3 169f 2843 3b76 1c04 2e0c 3f64 410e 4712 499a 3776 429d ffffd710 ffff9ac0 ffffde74 1552 153a fffff256 fffffd7a fffffd59 1c39 1769 3193 3b6e 2e16 13bf 1347 1376 118b 16c3 2153 2b53 2d43 16d0 2b48 2526 8da 15ca 1658 fffff38f ffffe1a9 ffffef2c ffffcf83 fffff5c9 12a1 2c68 1663 866 ffffff47 5e3 fe4 3efa 3f3c 2d92 998 ffffef0c ffffe885 fffff5fd ffffe7e1 ffffc740 ffffef4e fffff386 fffffd5b fffff508 fffff665 7ee 19f8 1449 fffff43a 319 ffffd61c ffffd8d4 ffffebda ffffe55b ffffea02 fffffdfd 1ec8 fffff19f fffffb08 30bb 13b9 ffffee9e ffffd8c7 ffffe024 ffffdb1a ffffd137 ffffbea4 ffffb110 ffffd19c ffffe365 ffffdb2b ffffeaa4 fffffc8d 1970 1f5d 30e0 2f0c 2a46 705 fffff588 ffffe197 ffffcea8 ffffd0ec 174 406a ffffdf91 ffffbf69 fffff47b ffffeca5 ffffb8b7 ffffc88e ffffb951 ffffad31 ffffb353 ffffa2b5 ffffcedc ffffda66 7b5 1198 24d0 1707 2e35 3a38 3523 fffff465 86a 2c1a fffff309 12c ffffec95 fffff898 1ce7 fffff7ee ffffc35b ffffd6a9 ffffe3e5 fffff12f ffffc3c8 ffffa938 ffffadf6 ffff9533 ffffc63c ffffc438 fffffdf6 1b26 2703 2f25 46a2 3608 2c9e 344f 2655 354c 528e 187a a3f fffff4b7 f59 2e20 fffff0a2 fffffeb5 ffffdffc ffffe2ef ffffeeed ffffdb71 ffffce9d ffffb402 ffffb418 ffffb772 ffffe7aa fffff6fc be3 2155 167f 168f 2a7c 2a8a 3f3 27a3 2c16 182b 51a2 3fa8 263f 30e5 9ea fffffd4f ffffea24 ffffe2f1 1b7f c15 ffffff0e ffffd5b1 ffffc41a ffffc890 ffffbcf7 ffffe7de ffffeef9 fffffa75 544 1830 3edf 3b41 4846 3689 22dc 94a 3b5b 229b 6438 65be 19c6 ffffefaa fffff9be 1693 ffffc7d5 ffffe171 fffffdb1 c82 fffffbc5 ffffde99 ffffceba ffffdaa5 ffffeb99 ffffeb94 fffff8a3 fffffe32 ffffec2b 3600 6901 6241 374b 57eb 4db2 1918 447e 412b 4e3d 3df5 159b 19cd 2916 750 fffff232 ffffaa83 ffffe962 d6c 33d2 1bdf ffffebd3 ffffe627 ffffc0d9 fffffcb7 167 ffffca6e ffffd1be 2367 74b9 5b9b 28cb 3eb5 4083 271e 8a8 fffffd71 275e 2f43 ffffea92 ffffcd4e ffffc2a8 ffffe582 187e ffffdb2d ffffd439 27ff 4173 1e08 674 ffffff6d ffffe9f4 fffff669 ffffcff9 ffffb87c ffffdeda 17d2 3c33 1c46 e9e eb5 d2c 120c 9cc d5a c09 db1 ffffd4ac ffff872b ffffbcf1 fffff5c9 fffff955 231a ffffe749 fffffbae 2789 33c0 12b6 fffff238 4cc 229 ffffe1da ffffce4b fffff9e4 19b2 bcd 529 ffffdfaa 41f fffff73b fffffd2d 110b 2929 1218 377 fffffa5c ffff6955 ffffb0c1 ffffeef8 ffffdd3c 1cd6 fffff615 ffffcb7b 30df 61f0 3200 b8a fffff8c8 ffffdd87 ffffc36f ffffbbff ffffecdf fffff7ff ffffdf4b ffffd464 ffffd8c8 ffffdf03 fffffdf9 b64 27a4 fffff15d fffff6c2 82c 1528 ffff69e7 ffffe98c fffff184 ffffdb7b 2695 16b8 2d6 46e8 6616 2346 ffffeafb ffffe98a ffffcaa5 ffffbf3f ffffc5e2 ffffd051 ffffc037 ffffba5b ffffbbdb ffffe28b fffffb93 ad9 16e6 12f1 ffffafaf ffffd80c fffff3cc 200 ffff5dde ffffc03b 12d0 29b 283e ffffedd8 2526 31a8 301f fae 14ae ffffdd95 ffffcf71 ffffca9d ffffc8fc ffffc27a ffffac9f ffffbe7c ffffddd2 cf5 29f9 e33 11e2 ffffef60 ffffb196 ffffb864 ffffd353 ffffe0fe ffff8cb4 ffffec3c 1819 3386 56e9 123f 21a7 797 21fa 2a1e 1852 1c12 fffffdb2 fffff5b9 fffffbd7 ffffca83 ffffd89d fffff8e4 2392 265e 23e9 835 fffff173 ffffc63b ffffb60c ffffb370 ffff995d ffffb1f6 ffffd3b2 fffff308 fffff0b0 13c2 1b7e fffffcfe 1060 b30 3ed2 3249 24f3 21dc 27a6 18d2 fffff3ac 109d fca 2023 2646 3367 2f29 145d ffffea39 ffffd845 ffffb67e ffffadeb ffffbbc6 fffff8bb fffffe84 fffff13c fffff846 4f7 1999 ffffd33e fffff5e6 b48 3194 2e63 1962 223a 2392 2280 139d 11f1 31e4 3738 22d8 1164 1a4d fffffe2e ffffc5e1 ffffb0dd ffff8a83 ffffab80 ffffbaa5 ffffdfe1 ffffefb5 b46 1686 1090 fffff233 65c fffff1f6 ffffdb2e ffffefdb 286e 2532 133b 7db 1483 1b1c 1a87 1659 ba5 4d0 c5d fffff2de ffffd96f ffffa4e9 ffff6d32 ffff55e8 ffff7201 ffff9158 ffffd863 fffff802 280e fdb 1010 2560 fffffb52 fffffd72 ffffdd78 ffffeced 809 fffff48f ffffeb3d 358 b5 1e73 fe6 1bfc 2f0c 2139 fffff889 ffffd626 ffffa1b6 ffff6fe8 ffff3e8d ffff6014 ffff83fe ffffaa19 ffffd8e3 fffff2f9 176b 7fc 148 fffffe57 5158 2d3d 1efc ac3 fffffead 13d ffffec9b fffff241 2ac 169d fffff05f 15d4 577 fffffa87 ffffbafa ffffcb22 ffff9c87 ffff7713 ffff6fde ffff7e2b ffffbeb4 ffffd3c6 ac0 fffffc97 ffffe3c9 fffff7e7 fffffcc7 fffff776 20db 348b 4836 3a64 1307 e51 3b5 fffffedc 16b3 fffff3a8 c21 133b ffffc768 ffffc8fc ffffbfdd ffffcfd7 ffff9a6d ffffa229 ffff9d00 ffffc004 ffffd4c7 fffff1fe fffff2f4 ffffde35 e7e fffffa73 307 7b1 2a77 ffffdff0 ffffe103 2213 3943 4e92 5c63 4543 250e 9c4 ec1 fffff8d6 ffffd5a3 ffffd959 12c2 85c ffffe66c 1cdf 2a76 200f 2189 e80 fffff260 a6f fffff7ee fffffd3b fffffaed fffffa71 ffffff50 16c9 182c 10b3 1431 297d 19c6 404b 4ccd 56be 2bde 1bad 5d5e 5caf 396b 17f7 3221 2094 2d49 3684 1d27 817 92c ffffefce 38a fffffa25 a4 6b1 fffffe57 fffffa0c ffffbdfc ffffac29 ffffbcba ffff9e77 ffffce3d ffffdce3 1bbf b2b 14a7 ffffb708 2884 17d ffffea45 ffffc221 fffff520 ffffe812 ffffef08 ffffef89 ffffeae9 ffffe518 fffffd8f 2c1 fffffa5a fffffc34 596 fffff9d3 282 33e 2d0 6cc bd fffffe37 81a fffff795 fffff84f 619 ffffff78 fffff95f 348 62c fffff938 fffffd59 422 fffff765 588 306 2e9 fffffaab 7b8 38 fffffa70 fffffcf4 8a9 71b 1b7 fffff981 ffffff66 ffffff54 329 fffffe45 ffffffff fffff00a fffff561 fffffb48 10a e5d fffffd9b fffffce8 fffffb15 ffffef04 fffffbfa fffff241 fffff2fd ffffecc2 fffff92f fffff8a0 4c1 fffffa5c 715 1df ffffffc8 229 fffff9e9 ffffed31 fffff31d fffff861 b19 ffffeedd ffffcdc0 ffffa4d5 ffffc2a1 ffffbf8f ffffb480 ffffe117 ffffe848 fffffa58 2096 2b77 24a0 2408 1a80 fffffa51 ffffff30 d16 ffffe816 fffff732 6c5 fffffa18 fffffb8f fffffbfe fffff476 ffffe897 ffffe427 ffffd3a2 ffffc484 ffffad80 ffffc9b6 ffffde56 ffffc8cd ffffe253 24d7 57e7 71af 9135 9009 4e9f 2c7b 3fd3 3f1f 1a5a ffffdbbc ffffdf79 2274 ed 75b 719 327 87 fffff4a8 ffffde3f ffffcab3 ffffcf8a ffffca70 ffffe24b fffff0a1 33f2 1947 1d31 18e7 1571 fbe 314b 44c6 3bda 1f2d 1211 fffff991 363f 2e76 1367 782 1998 373c fffff768 fffff71a fffffb0c ffffe011 ffffadf8 ffffb890 ffffd046 ffffe55d ffffed88 270c 20a9 109a ffffe072 fffff80e 2dd0 1fee fffffeb3 427 251f 17af 8dd fffff26e fffffe62 2e29 1349 bfe 43d1 53b3 91a 60 fffffe6b 243d ffffeeaa cde 837 917 842 b69 fffff103 bbc ef9 1375 e8d 13c5 fffff10a fffffa00 f4b d75 fffff6c8 ffffe079 2ea 20f5 acb 1e9e 5263 428b 1ae6 fffffe08 33d3 33f7 1198 ffffd789 fffff4d5 1e4b 1ade fffff8df 14f8 1d4f 3516 2d1f fffff23d ffffeff7 ffffee41 1086 1882 2bb5 1929 1fa1 1120 fffff84a 24b 1c44 3456 73b 2b9e 15f7 4a01 46f3 9d0 ffffd96c 7b fffff832 f8f 171c fffffff4 da2 294f 49f1 1b66 127a 253 751 fffffb1d 121b fffff6d1 1c67 19bc fe6 1f62 1738 17c2 13ec 3216 1620 6831 5b0 b0b 2bb5 fffffe96 ecb 1998 f93 bfa 1182 3e49 5b00 50d2 b60 ffffd5f1 ffffdd3a ffffe758 28a 194 ffffffcd c19 11fb 16e3 4220 4cf3 856 3786 266d 7bb5 21b6 39d9 3561 b29 fb 631 18a5 2c40 2759 685b 8048 4a32 ffffbc37 ffffb766 ffffc46e ffffeba2 36a ffffebba 376 560 1231 ffffffda 2706 4495 42cb 3021 3c89 64b0 52b7 3336 2afd fffffc15 1055 12e7 31 2271 524c 8002 6338 326 ffff8c23 ffff9059 ffffcd24 fffff7bf 17fb ffffef6d ffffe5d3 ffffd44e ffffe552 cc0 34c3 3cca 51a1 fffff080 1ec8 66c2 4540 12ff 1a06 11c3 33b5 3492 43ea 4e07 6d9c 635c 15a5 ffffb117 ffff8a5f ffffa8eb ffffc4ca ffffec91 fffffaa2 ffffc9e3 fffff494 ffffc79f fffffc81 2b0a 3eeb fffffa05 4e50 ffffdebe fffff99d 27b6 367f ffffff57 233 2841 41f1 4037 2e93 3c18 43fd bfa ffffc774 ffff9dce ffffa66d ffffb3e5 ffffbfcc ffffd6c4 ffffd887 ffffbee3 ffffe88b fffff971 ffffffa9 19b3 5288 fffff72b 16b8 ffffe16d 1911 2e58 4f67 3f19 1eee 5a63 3a50 3182 2da7 1f69 1222 ffffc4a5 ffffaf98 ffffacd4 ffffbf42 ffffecba ffffcbf9 ffffc5cf ffffc4cb ffffcb61 ffffe3e7 ffffcf73 4a2 4dd1 6786 ffffc37b ffffda42 fffffa69 33d6 1357 5062 4ce0 222f 520f 2924 1fce fffff94b 9a2 ffffeb85 ffffa525 ffffa1b3 ffffa20b ffffa9f7 ffffdf35 ffffc4ad ffffcb89 ffffe197 ffffc8f6 ffffd21a ffffdc4f ffffed9c 335c 52df ffffd00a 1a9 10c7 25b1 1f96 2d0d 4236 2938 2182 ffffe883 851 fffff6d9 ffffd61e ffffcf29 ffffa46a ffff8916 ffff7bd5 ffffc8a4 fffff1cb ffffc84e ffffd532 ffffe66c ffffdade ffffd983 fffff296 fffffb85 17d7 3c1c ffffaf96 ffffd5ae eba fffff710 1c98 2163 32e2 e6f ffffe274 ffffd555 ffffc7d9 ffffb6d4 ffffab29 ffffc7cf ffffb7a3 ffff97ba ffff65f6 ffffad01 ffffd611 ffffc9ed fffffe45 ffffff6c ffffee59 fffff92f 580 11c4 1498 ffffffd0 ffffe324 ffffbe82 ffffe5ef 786 1f1e 2db1 18a8 ffffeafb ffffcc7d ffffb678 ffffb71c ffffa3b8 ffff9126 ffffb757 ffffa1ec ffff5db1 ffff6152 ffffa7c6 ffffd95a fffffcad 545 1ac6 fffffda9 18a2 332e 31b8 fffff122 ffffd5bd fffff48e ffffc9a0 ffffc25f fffff91d 2f28 223e 902 1b06 ffffce9c ffffd994 ffffb69c ffffc42e ffffb3a2 ffffb00f ffffb8a0 ffffaf10 ffff97d3 ffffcb57 b08 26f3 2a04 1b3a 1de8 42a6 2a5f fffffc27 ffffe8ee fffffceb fffff0e4 ffffcd4a ffffe274 208 15d3 fffff498 fffffda7 659 ffffffd1 ffffe823 ffffdc1c cb0 ffffed18 fffff3e3 590 336 fffffc05 fffffaa2 14c1 35c0 3d93 2eaf 3188 449 cae 72b fffffb4e fffff0e3 fffff3b5 661 684 d3 224 ffffd195 ffffd665 5ee 131f 5dc c9d 2f9d 1366 3806 3d2a 33a4 22da 19cb 27d5 4048 207d 372a 1c4e 1d50 2524 1ccc 19b1 3aac 749 758 bc6 52f fffff7b3 ffffdde3 ffffd22a ffffd692 21a0 1677 10 2b30 1a75 1530 174c 14e4 24f5 2492 3424 3056 3f9b 3a4b 3486 c93 228d 18c4 11d1 fffff485 9ed b1d 583 3a2 ffffffaa fffff91c ffffe7c4 ffffde44 ffffdcc0 16d9 103f 19be 214f 257a 12fe 1eb0 188f 2e6f 2bce cce 29f3 1d81 19e7 1b8e 242c ffffe652 ffffac0b ffffc9a6 ffffeaff 123 873 fffff7a3 fffffd02 f24 18af 35fa 5df d56 3f29 5279 53d3 3f3e 15c5 2004 288d 3a5e 36f4 144b 57e7 3bc0 22d5 fffff0c1 466 ffffe3b1 ffff97d7 ffffc6b3 fffff4f9 fffffd4e fffffb2c fffffadd 327 ffffdb75 17bb 1e2 ffffe1db 422 4b09 4e32 4268 fffffc49 18b1 38b1 169f 585 127d 39d6 290c 43b7 5f4d 2005 3a62 6150 ffffff6d fffffef4 fffffa3a 39b 213 fffffb6d fffff8d6 fffffa66 fffffb85 ee7 ffffd67a ffffeb2e 23d0 40a6 1876 fffffdef 239c 1164 1b93 fffff8d4 4a68 3bb6 1769 4bab 7835 1ecb 1cbc 6904 1d92 fffffb3a ab8 66b 8dd 387 fffffee8 8c9 5ca 3412 53af 8a7c 991d 9166 7a4a 6804 3ea0 3b5b a8b2 4e07 1182 2006 622b 2b3d 10c9 1776 2bce 3714 26b5 6b6 95 757 5e5 fffff872 ffffffbb ffffff59 fffff923 7b 1a7 fffffe4f fffffaf3 5 fffffc24 5e8 2a5 1dde 13bc 11e 1cc fffffea3 752 299 70c fffff78a 813 fffffb30 48 fffffe82 fffffcb3 617 1e1 fffff9a8 20b 11f 6f1 1ac7 2c51 3c4d 4773 398b 50a3 4065 4a5a 592f 3e95 ffffe897 25bc 5d00 7591 9cb3 58a6 563e 3d75 2a11 1dbc fffff7c0 68d 489 fffff7df fffff8fd 84f 518 1802 1c8d cd8 2fd6 4eab 511b 201b 3039 3426 22d9 ffffd884 ffff90d1 ffffb945 fffff633 3238 35a2 22aa 78c fffff765 ddf 2cd2 fffff047 ffffef29 fffffb17 778 246 4e9 ffffde1d 1f66 3add 1121 7fd 1b61 5ae7 6f86 6a64 70f3 4a8b 3ef0 19cc fffff569 fffffc7b 2275 1e4f fffff58e fff 3aa6 3267 13c5 2170 365f 1db0 2ed fffffc85 fffff6d9 ffffd5e6 3024 7e ffffd068 ffffe79e 26e a9 1f0c 15b7 3808 2059 ffffd997 fffffe41 394 ffffe789 ffffed80 ffffeb05 ffffdd57 ffffea4b 7e3 ca0 fffff5a7 387a 5c8c 5b7a 1d3a fffffa38 fffff995 ffffc2ac ffffbb23 ffffcfe6 ffffd8d9 ffffcee7 fffffc43 299f 29eb 27f3 39dd 2331 1ad4 a49 ffffd2f4 ffffde56 ffffefdd ffffe72c ffffec60 fffff7ba fffffb15 ffffed77 ffffb195 102 5051 43ae 11d7 fffff794 ffffe5cc 594f e00 ce8 f41 fffffe04 1316 344e 2ea5 3ec1 3c8e 2e2b 1c64 7f8 a3d a8b 1018 fdb 2b98 17be b9e 89c ffffcb37 fffffd10 380a ffffe2a7 117d 631 153 7744 23b1 fffff6c1 fffff6bd 2522 2555 4512 45d7 5a38 3c6b 2198 1630 ffffeaae fffff25b fffff498 1ce3 39f1 1745 fffffce1 fffff692 fffffea8 fffffb8d 1c54 3cc9 ffffb70b edd 2596 44bc 2e77 1ff0 ffffe331 24a7 3ab3 2c76 4d88 4678 2bac 2acc 121b fffff22a ffffe1ab ffffda2f 1aba 1ad1 3c12 ffffff18 ffffff31 efa 1e58 27ef 49db 215b 12aa 43c7 2313 477a 2084 516a 2d70 45c5 4ab2 12f4 2131 1832 14f8 a9e 7fa ffffe964 fffff6c6 ffffd98c e0c 3325 1617 fffffc42 1cc8 24db 1ac4 3ce6 6d53 6b5f 48fa 3f1d 1654 2d89 3b3f 5052 6e38 4fc0 563a 2df7 1b5a 2954 769 fffff48f 36c c97 1618 164e 3e66 1f50 17f6 ffffe195 253d 2747 2ecc 7285 8a81 486c 627d 1941 2c5b 3a83 4cd9 71d2 5f45 4225 56a5 4391 2435 5a6 fffff0ac 445 1abd 4344 4d13 38ca 2cf8 1d6a ffffedde ffffe7d9 ac3 1bf8 34c9 8b3d adbf 734e 8109 97f 1ac3 33dd 494e 5a0d 6078 475c 345c 1a12 fffffb61 296 fffffccc fffff7d2 ffffe2ca 164c 2a44 21ee b6b 4f8 ffffe670 fffffe4d 7d2 fffffafe 2232 4a9e 5adc 3088 3d0a 692 ffffe72d 1c02 45dd 3ae1 410a 39a8 2094 7b0 ffffe8fb fffffabe 1907 36c fffff2e6 d17 fed 14bd ffffe922 ffffc654 ffffed13 497 ffffff5a 4f5 3285 72ac 62ca 3064 3124 ffffe0ad 14c7 eb4 4330 1d7f ffffefbb 2501 2484 a7d ffffe8e9 fffff139 2965 2bde fffff84e 1e04 4df f5a ffffc705 ffffdbaa 1349 20c fffffde1 ff4 1d98 611a 62dc 27b6 f01 ffffd88b d2b fffff837 ffffe103 ffffd5da ffffe3f8 1eb3 2dd7 8cc ffffd3ca ffffeb36 1d8b fffff7fe 8b2 fffff876 281 ce1 ffffc6e0 fffffdfa 2803 1381 2df3 105e ded 3936 95be 5dff ffffde74 ffffc19e fffff60d ffffe8cc ffffb79d ffffca90 b95 5b9 e1b a9f fffffa73 fffffe74 1830 bc4 c27 ffffeb92 ffffeae1 fffffbf1 fffff513 204b 1f fffff1f4 25 ffffea0b 1059 3ea7 49df 19a9 fffffe68 ffffd5c0 ffffffd4 ffffd6d3 ffffc4d2 ffffc286 36e 1c4 17ad 4b9 1ec9 2d98 a53 1f9b d7b ffffe70c ffffe81c 217 9f9 28c9 ffffe5c2 ffffe28c fffffa59 fffff5fc 1052 1238 2fde ef0 ffffec54 fffffbd6 35ea ffffb8c7 fffff6d5 ffff8770 ffffed42 478 3b96 37ef 2551 1ce6 2d74 1ccc 462 fffff07d ffffef27 26d a28 1c92 ffffdd68 ffffd996 ffffd7da ffffe56a 1c54 b8a 80e ffffff25 dd2 ffffc5d5 ffffe9f8 3fb1 1586 ffffb353 fffff99c 18f2 9fc 7aa 2747 174f 3247 12b8 1370 ffffe10f fffffeea ffffeb1b ffffdbb0 67c ffffe312 ffffde7c ffffd516 fffff267 1466 ffffef2d fffffa17 ffffe057 ffffe521 ffffdb8a fffffbca 205a ffffe13a ffffa146 fffff58d 4ed9 fffff410 867 1aa9 1a9d 328e 1c50 ffffe89a ab4 ffffe018 ffffe859 ffffbb5a ffffc5c9 ffffa504 ffffb711 ffffc3b9 ffffcb6d fffff138 ffffe912 fffffa6e 1782 ffffee3e ffffeeb4 ffffea9d ffffe5e3 ffffac0c ffffb117 ffffe022 ffffe007 fffffd3b 3e6 fffffa95 1a80 215b 3082 111c b4c ffffe655 ffffc90d ffffcef7 ffffe37e ffffb86d ffffc25b ffffb03b ffff9ca6 ffffee7a 9e0 fffff0c4 1571 2e11 24c ffffe1a9 ffffe050 ffffc64e ffffef8c ffffecca ffffc0fd fffffcfa fe5 fffffbae 14cd 23e9 2258 26e0 1560 fffff151 ffffe1f5 ffffecd6 fffff066 ffffdb75 ffffcdef ffffa83a ffff97b0 fffff9e2 26a4 1ca9 11c4 509 105d 57e fffff6e9 ffffe2e2 16f3 2859 1622 ffffee1f fffff485 ffffeeea fffff7f5 119d fffff945 ffffe241 fffff745 fffffbf6 fffff8e0 647 ffffe488 fffff3ea ffffdf59 ffffd470 ffffdcfc 1fc0 47ae 364d 1445 ffffcff9 fffffdb3 fffffc46 6d0 65b 3075 3ef1 1d39 ffffe246 ffffe509 ffffe05a ffffe04a fffff01a fffff0b8 1631 2582 18d5 192b 3bdc fffffe2c 57 f04 1568 ffffd11a ffffe0d4 193e 3daa ffffb440 ffffd116 516 fffffc38 72e ffffd4b4 3525 f13 1879 ffffdec0 3a3 fffffedb 55c 391f 5d74 32c2 4862 4417 5e9a 86c7 5a6c 3ed5 7c08 4b41 4213 2df1 7d4 3633 ffffd997 ffffeaba fffffff5 fffff9e6 fffffc60 4a5 fffff432 ffffe05f fffff175 fffff9bd 346a 65eb 8905 64ae 93ab 8e8b b3fa c1ee 7918 6814 8f98 b089 ab5d 9f2d 68b9 6ee2 513f fce 1bda fffff77d fffffb61 fffff9d8 2f8 6d8 fffff9ba 294c 4b55 3fa3 2fd4 4838 48d3 51c9 5c76 6018 8d90 7161 2a8b 4410 7bc0 4e79 3d4a 28bb 20f2 2b40 1b45 1c6 ffffff63 ffffffd4 fffffec2 904 85a fffff6f5 70 fffffd81 48c fffff91f fffffcfa 311 8bc fffffc8a 290 455 c73 9e9 74c fffff6ee fffffe97 400 6f8 21f 478 fffffbe9 4b2 53d 8e 8ff 76e 529 6ac fffffcb5 867 fffffb22 fffff1d6 ffffdf22 ffffdd9e ffffebcc fffffff2 fffff461 ffffde6e ffffd722 ffffc6c3 3bf7 71f ffffe6ba ffffd93e ffffb128 ffffcefe ffffdb87 ffffdda4 fffff16e fffffb62 328 fffff77e fffffd3c 59 fffffd63 fffff6e8 fffff6b3 fffff1ad ffffee3a ffffd812 ffffbcb9 ffffb9c6 ffffc91a fffffb8d c5f 1c7 e15 1c90 30db 6018 34f6 ffffdd46 ffffb6d8 ffffa49a ffffbcbe ffffcdf9 ffffc7aa ffffc7a9 ffffd3da ffffeabc 4b3 fffff951 e0 19f 1d01 6a fffff272 fffffc6a 4d0 fffffdf9 17d9 3217 49eb 38d9 606b 3995 4a3 1de5 13e9 fffff35b ffffc5d0 ffffa65d ffff9a04 ffff7fb1 ffffada0 fffff748 fffffc5e fffff3ac ffffd7b7 fffff939 841 1253 1cc2 309e 499b 2d70 2f84 cb5 2310 1502 2792 1ef0 2f0b 43eb 2c4a 2e34 1848 fffff522 fffff204 ffffcbc0 ffffa207 ffffb3af ffffc7c0 ffff9364 ffffd4ce ffffc189 ffffcd3a fffffabd fffffe6a fffffe07 fffff4c0 3b68 3e9d 38c8 1c30 fffffbd8 ffffedee ffffe44b ffffeb22 fffffb0a 214d 1767 3135 3fd3 2f4d fffff745 ffffdfc6 ffffd510 ffffa2dd ffffb824 ffffb07f ffff80d3 ffffc9fe ffffd9cb ffffb44c fffff6f0 fffff7f4 db0 fffff5b4 34bc 2eb3 2ab9 181c ffffede6 ffffe7ba fffff9ca fffff9d7 fffff65f fffff995 fffffdac 98c 1181 29bd 286e f54 ffffd497 ffffa296 ffffbc4c ffff7137 ffff78b8 ffffa89c ffffa90a ffffcb8d ffffefb6 557 a49 ffffeb8c 47db 6aaf 2c08 fffff941 fffff570 ffffd49e fffff7d0 eb ffffd7ea ffffcf9a ffffc721 ffffe3d0 1d52 3e8d 5346 234a ffffd82c ffffbbc4 ffff5e27 ffff2465 ffff60cd ffff696f ffff9a81 ffffd5e5 ffffe6d8 ffffd34d ffffd337 543 529a 4d79 fffffee6 1d ffffeeac ffffe2b5 fffff450 fffff20d ffffa0cb ffffa422 ffffcf2b 348 5265 6dd2 7028 2f2a ffffda09 ffff86a5 ffff1403 ffff463e ffff65b8 ffff67fe ffff97e0 ffffea5e ffffe180 140 ffffe379 fffffb06 f54 3906 10b8 fffff60f 4df ffffe3ab ffffcb3c ffffa784 ffff8926 ffffc8b6 8bf 3df6 9712 b341 92dd 1c78 ffffba45 ffff5287 ffff07ac ffff2f00 ffff629f ffff5fd4 ffffba05 ffffed5a ffffd4b9 b07 11b8 14f6 4085 2340 ffffe956 ffffdfff ffffd00d ffff9552 ffff9a52 ffffb54e ffffc4b4 fffff179 2fdd 69e0 85d3 9af8 7778 fffffa48 ffff9b67 ffff331f ffff2a47 ffff725b ffffcbda ffffa96e d4d 1659 f3f 21d1 3876 ffffeebb 4a92 447 ffffcc70 ffffcdac ffffd6b5 ffffe49d ffffe77c b1f 1622 2d6e 3ebd 6bab 63ff 50ed fc2 ffffaf89 ffff62b3 ffff6a08 ffff5e51 ffffa135 ffffca7a ffffbfe6 1211 14fe 3046 252 b19 ffffec23 102b ffffdf90 ffffe183 fffff39a 1533 174d 217b 2908 3567 3bbe 3c91 4b5d 3945 2bf5 ffffd0d3 ffffa0e0 ffff78e0 ffff8250 ffffbc96 ffffc147 fffff46e 83b4 7a91 ffffefa9 278f 1ef2 fffffd0a fffff02f 200 ffffbaff ffffde4f 2295 16d3 2fdf 24c2 1216 19ec 1028 2192 29be 1cfe 1de7 fffffa34 ffffe152 ffffa155 ffffea9c 4c6 fffff3e0 1304 12c9 4909 d4f 261d 125 6a8 ffffea64 1224 fffff71e ffffed52 ffffd5d7 240 246b 1884 ffffe264 ffffe652 fffff9fa 883 3530 25e9 1b31 fffff9cc ffffd95a ffffe37a 4f0 4698 1528 25a7 fffffa03 3d75 36f0 6d5 fffff04f 1197 2a09 4a59 33c6 ffffe8a7 ffffed45 fffff2d7 2194 1835 ffffe610 fffffd12 ffffdfc7 1192 35e0 2ac3 1bc8 ffffef58 ffffd0b1 6c f72 3aa4 3a94 2df0 5f1 972 595d 3138 ffffff1f 16be 3a4e 2e48 dc7 ffffe8f4 64d 1c7f 14c9 4c27 9e3 fffffd77 5d4 39d 2280 fffff4bc fffffd55 ffffde07 fffff401 bee f07 1d13 588 1a76 4d6d 230 3a66 3010 ffffffd2 2d78 3559 d9 ffffcffb ffffd3dd ffffe9dc 1002 fffffa2c 12c2 fffff066 ffffca51 ffffee03 1bd9 1e79 ffffe744 ffffe664 ffffe9b3 ffffeadf fffffb8e fffff2d7 6d3 fffffa0a 2352 21c8 fffff480 2845 dc6 ffffc25b 4b5d 4bd7 ffffff9c ffffd722 ffffe7c0 ffffe8b4 fffff699 fffff7c9 2b1 ffffde46 ffffc189 ffffd501 2534 ffffeeb7 ffffe90e fffffb06 9fa 158c 163b 1b5a 267a f43 d59 fffff778 496 e66 46dd 2090 fffff716 ffffe9f4 b64 ffffddc8 ffffe206 ffffd31e fffff9d9 ffffe594 398 ffffe488 ffffb1c5 ffffb464 fffffa3c ffffe7db fffff720 1cb7 bf8 f46 1dd5 26b7 1764 fffff8be ffffe9c9 ffffdb29 2962 2908 394d fffffd75 ffffe831 ffffe817 2043 ffffc64e ffffcd6d fffff6a3 a23 ffffec5b d95 14c 560 fffff528 ffffe305 fffff19a fffff72f 1999 888 221b 1916 2f07 10ac fffff1c9 ffffde0a 37a 2a42 1b43 1a91 1360 1d78 5c87 27c8 ffffd99d 3d6 fffffd28 ffffeaf3 fffff044 ffffea13 9d6 fffff52b ffffdb64 ffffcc52 fffff4e9 79c dd8 990 23d3 2b07 fffff1b4 ffffe46b ffffeb08 ffffef39 ffffeb0f 1c2c 2c2e fffffeb6 1166 2612 69dc 45bd 1899 1371 2bf3 fffffab0 ffffeff3 fffff272 fffff63c ffffe8db ffffc931 ffffe0a7 fffffc52 fffff04f fffff458 20b3 2121 22c5 16e3 9aa 17a4 ffffcc1c ffffe79f 161b 1e16 fffffa9c fffffdf4 867 2656 5a50 280e c5c ffffecfd 1f14 fffff6c0 910 13a7 13a7 fffff826 359 ffffefd8 ffffea09 fffff2ca 1f5d 3d58 2b20 108d 2667 ffffef1a ffffe113 fffff2e8 3c3a 3f2a 6f0 336 58d 23f3 5c83 5e6c 2ae6 24e6 220b 1a3a 210b 759 1526 fffff03d fffff72f 534 ffffd244 ffffe444 315 1e6a ccd cd7 3781 2034 ffffefbc fffffb71 3852 298b 2a0 fffffc3a ffffff0d bd5 1f8f 6183 3731 743d 53fc 6451 3f90 ffffe9f4 ffffda53 ffffe20c fffff1cf ffffde1c ffffb71f ffffa7c6 ffffaebc ffffeb97 fffff51a ffffeb9e ffffd5ae ffffd8ac fffff316 ffffdf90 1869 150f 477 3ed 8fe fffff740 7ae fffff4ca fffffac0 ffffde09 ffffb087 ffff9721 ffff6f6b ffff86fa ffff914f ffff303b ffff463c ffff4d94 ffff741c ffff8aac ffffcfa6 ffffffe2 ffffe3fd ffffea6e ffffa4c2 ffffb063 ffffdb69 fffff196 235 2c ffffff79 fffffbb9 fffffb25 fffff775 45 fffff97d 1ef fffff9b3 fffffa71 fffff2a3 ffffe0b9 ffffb992 ffffe057 ffffcbcb ffffb8a5 ffff8639 ffffb563 ffffbe93 ffffe966 fffff16c 864 fffff1f5 fffff0c3 ce4 fffffcf3 fffffea7 2b5 fffff821 348 fffffa7d ffffff0c 75a fffffb30 2b1 703 13e fffff7c1 fffffa60 fffffb3f 30c ffffffb0 700 357 1892 156f 8e3 fffffa5e 210 8d2 89c fffffa2f 2c6 ffffff50 fffffc9f fffffc73 6ea fffffd61 898 5b1 fffffe7a fffff7ee ffffee93 fffff36e ffffeb47 ffffdb1c ffffd4af ffffc817 ffffbc1b ffffd44a ffffd1c5 ffffea72 fffffd86 fffff3d4 1ebb ffffd785 ffff8e3c ffffaf37 ffffb723 ffffb786 ffffd76a ffffee93 88a fffffca2 fffffe4b fffffe73 544 7c2 fffffe3e 1647 fffffd67 ffffee71 ffffcd96 ffffde21 ffffbf72 ffffd980 ffffceed ffffd132 ffffd639 fffff77a ffffdad4 ffffb32a ffffd7e8 ffffdfe9 ffffbd47 ffff81a7 ffff6ff4 ffff7fa9 ffffb553 ffffd6af ffffec94 fffff8f0 fffffc73 fffffdef 6b7 fffffc30 fffffbe2 fffffcaa ffffde30 ffffd4b1 ffffb4e1 ffff9f30 ffffb15d ffffda5f daa fffffdda ffffe30f 425 478 ffffee65 fffff275 fffffe37 ffffef8b ffffba31 3a1 ffffe0ed 52d ea0 20c3 2552 fffff73a 78b fffff93b 1cfb 2b65 cdb ffffd8d5 ffffb723 ffffc52b 18ff a29 22ae 3021 3193 33e7 4ecb 4333 38ca 527 939 ec4 ffffea51 fffffa4b ffffd5c4 ffffe774 ffffd6e0 d9a 50d4 153d 2d2 806 13d ffffd749 fffff69e fffff02d 7b0 1be4 fffffa62 225e 2fa2 2e52 3a81 4d4d 6b09 50f3 6063 2d63 10ce 163f fffff0b3 ffffe943 ffffda45 ffffddac ffffb978 ffffc3c8 23f5 ffffeb7b fffffd13 fffffdd2 2003 1118 260a c83 25b3 ffffe4f1 ffffc300 ffffffc2 1e0f aca f2e 27a8 5249 4f1a 414a 51d4 5fb0 3b03 fffffea6 ffffe3b2 2250 100e ffffe65e ffffc5b0 ffffe74d ffffd2c4 ffffe525 294 2562 322d 3b89 fffff57b ffffe2c5 ffffe35b ffffbdb3 ffffdfaf ffffefcd fffff4a1 ffffffe5 1295 e4b cbc 3b60 4f17 5178 4cef 2225 de4 17a0 18b6 ffffffca 216 fffffda0 ffffe614 ffffe503 1928 4c9e 1b64 1bfb ffffcf04 ffffaa8b ffffd086 ffffe11c fffff409 ffffedac 350 ffffe136 ffffdd06 ffffd93d fffffc4a 1f06 43b6 35d8 575c 2e57 191e 12bf 826 ffffff51 ffffd164 ffffe8b6 1c4b 216 15e5 390b ec1 2e10 ffffc2a7 ffffc0b6 fffff766 fffff874 ffffe83b ffffd86e ffffddcc ffffc4ee ffffd944 fffff3b2 ffffe4c1 fffff657 a34 3c61 564c 66b7 52e4 1774 2294 ab5 ffffa885 ffffafdc ffffd6d1 fffff0bd fe0 1b82 fe4 188f ffffd137 ffffda8b 125c fffffef9 ffffee50 ffffd1be ffffcf0d ffffd724 ffffe9c1 ffffe995 ffffe573 ffffb5a4 ffffd39e 2315 5d18 5f0d 7533 5d53 4c8c ffffe124 ffff5d0f ffffa0b4 ffffcc46 ffffe7cd 25a2 2c03 23e1 309d ffffe29e ffffead1 fffff325 fffffa14 fffffe0e ffffde1d fffff299 fffff0f7 fffff296 fffffe96 fffff658 ffffd387 ffffc150 17ef 4c50 772b 8c0b 6824 36d2 ffffa916 ffff7e98 ffffba14 12c4 fffff16d 1c91 1716 434d 4418 1b76 135e fffff36a fffff2d1 85 fffff6bf fffff100 ffffd53d ffffe522 f1 74b ffffde79 ffffdcf7 1f66 51e4 8090 6bd9 3352 fffff792 ffff9ec8 ffff7a2b ffffc2d7 fffff5a9 fffff869 fffff985 a6f 2bed 36aa 2d14 76c 158c 227e 17ea fffff07b fffff17d ffffde19 ffffddfa 11e9 14ae ffffddf5 fffff29e 396c 6658 47d2 3f0a b41 ffffd9e0 ffff7c59 ffff7c09 ffffe3fe fffffc86 fffffe76 ffffe301 dfd 161a dd8 136e 74e 17d2 2d6d 139e ffffe51a ffffc032 ffffd138 fffff23f c4d 165e fffffba2 fffff629 4757 4ac3 47cf 1493 ffffe6e1 ffffb680 ffff9c88 ffffbea4 ffffe540 2b60 66a ffffe77c ffffee9a ffffbd2a ffffe478 3e3f 1757 ffffed3b 26d 55a fffff96d ffffe28e ffffd647 ffffd9b3 ffffe63b fffff147 18fb 20de 4897 341b 1c37 ffffe947 ffffc89d ffffd95e ffffd198 ffffc959 ffffb89a 206e 195c 2515 fffff7ec fffff111 ffffe3d6 4fbf ffffedc0 ffffd4a7 fffffb15 fffffcac e89 fffffc70 ffffe512 ffffede9 fffff23a fffff426 587 384b 5642 97e ffffd730 ffffd894 ffffd4bc fffffa57 ffffdba6 ffffc1fb ffffbde1 fffff8e1 2d79 654 ffffea6a b18 263 162a ffffc9c3 ffffda54 fffff43e 9d0 1b6a 2ae 329 73d fffffde3 fffff121 22ff 3868 2d2a ffffef4a ffffb79d ffffbe0f ffffce36 fffff58d fffff07b ffffe79d fffff1e1 12f 29bd 3278 567 139b ffffdd76 ffffd671 ffffe5a4 fffff766 fffff316 1187 fffff220 1c0 fffffd34 ffffdfcf ffffea28 fffffb8a 18c6 2348 131e fffffb2a fffffc9e ffffe2ab ffffea84 fffffef1 ffffdf14 ffffe0d7 1cd 1537 ed1 ffffe173 23ce 16c6 ffffe946 fffff56e 4a4 ffffff32 fffff10b fffff365 0 8e1 fffff86e fffff78f ec8 ffffeccf fffff061 a36 9f1 930 1ecb fffff2de ffffdf36 fffffad9 fffff5b7 fffff2cd fffff50e d2a ffffe005 fffffda8 28e8 8b9 1a44 9ea 1b99 44b fffffa21 ffffeea4 fffff077 ffffe73e ffffe5c5 ffffee74 fffffa04 ffffd0e2 ffffd593 7a5 eba fffffeb5 e7e ffffec62 ffffcc2b ffffd6cc ffffdd9c fffff535 ffffed78 fffffcf3 ffffe527 fffff062 1590 627c 3ad7 bd3 96 fffffdfc fffff050 fffff79a fffffefb fffff1dc fffff74b fffff372 ffffe9bf ffffbdc3 ffffe2c7 97a ffffef9a ffffed24 ffffe421 ffffc37a ffffd20a fffff9cd ffffdc90 fffff3cc fffff3d3 ffffeb61 15b4 ffffe961 fffff76a 778e 5345 119d ffffef38 3ad3 3751 3023 1c43 1197 12b5 752 fffff374 fffffa7e ffffedbf fffffa27 ffffe36e ffffd631 ffffd2d4 ffffcd62 ffffd8fe 321b 781 fffffda6 fffff0da ffffdaf6 7eb fffff762 ffffffba 15b 149c fffff2d4 3eb 373d 6364 4acb 1e54 1f28 2cb9 fffffb4c fffff28a ffffe965 ffffffef ffffeeca ffffed5e fffffa23 ffffd5b2 ffffe00b e1a 272d 1c7a 10bf ffffe3f4 ffffb6ec 5d fffffd26 8b7 fbf 1986 6184 40f5 19c1 3680 134b ffffd8d9 ffffe648 ffffeb31 ffffc91f ffffdd12 ffffe322 fffff103 ffffe40e ffffe38b ffffd9ad ffffe1f5 1c8d 33e0 3aba 5f79 488a 1466 205f fffff81f fffffb62 ffffffa9 195e 1094 4269 65c1 1899 1e89 3d6c ffffed73 195b 128c ffffbaeb ffffc142 994 a8e cdb ffffe691 ffffdd8f 17ff 5340 2769 fffffdbe 1b32 277a 2f14 18b2 355 80b 295 905 1da6 261d 3b4f 6ae0 8052 88c2 7c4d 5e40 23b8 182f 2935 5dcf 2fba 5251 3ecb 3f7d 5999 6b1d 7245 705e 4e02 d90 fffff822 408 8be 6ae 617 1c2 fffffdd1 ffffdd8f ffffc5cf fffffe38 1542 1fdd 2354 53b3 3338 2aa4 92d 5bbf 4814 5f30 6b2f 3c07 2a32 2fe0 466c 2371 d3e ffffff1c fffffa07 fffffc39 fffffaaa 6a0 8d1 fffff75b fffffa7c 77d 544 31 fffffe26 24f fffffd1c fffff774 41b 45f 7fb d11 117 1c8 fffff9cf ffffff24 4eb 39e 443 2 fffffa25 277 fffffd32 fffffe03 514 ffffff2e fffffacb 762 fffffffa 1bbf 260e 2627 28a3 2751 2841 c51 30a7 3921 5cee 4ef 1335 566f 6d68 4459 5bb 35 774 e7e 172a fffffe39 307 200 fffff8b9 fffff97f 1e1 fffffb32 352 1841 221b 298e 3f62 5bf2 7a47 7657 8996 697b 28a4 290c 4748 682b 8f95 6c8a 43e2 28f8 e39 19b 2095 1076 1ff4 fffffd29 fffffe3d fffffb92 fffffd69 b2b 2ca2 28ce 42b0 4788 549d 601d 6699 747e 6788 7221 59a1 575f 2e11 2112 2397 3388 34a8 3358 251f c42 ffffc7b4 fffff06c 1258 178e fffffd05 fffffe58 fffff5a6 fffffba2 b33 ffffee85 1fb9 4b8e 4683 45d5 48ed 515d 4dec 2820 d2d c1d 19b8 133c 17df 186c fffff5a4 ffffe3c7 ffffeb44 ffffe193 20b e04 268d 1bba fffffd50 fffff8f6 823 2d1a 10c5 bed fffff785 fffff140 b4b fffffa88 fffffe59 2146 1d2e 18ef 1f82 fffffc0d fffffe89 297a 19be 1313 fffffe59 208f fffff6f5 d05 fb2 78f 1a6b 3265 cc9 57d 163d 540 14d0 3c4c 2435 1060 1af0 10b9 536 7ad 7e3 fa9 fffff06f fffff981 fffff8b1 226 ffffe6a7 fffffcd0 fffff3a0 fffffd67 fffff3c8 ffffeddc 157a 3c60 3d86 6071 3229 75f 3315 fffff87a 18ba 47e1 495a 18fb 2abc 2bef ffffefd0 fffff66c 1231 ffffee0c ffffd480 3eb ffffe211 fffffad2 ffffe7c2 fffffc1a 13a fffff7b4 fffff62c 1c42 af3 1638 2837 4ad2 b08 5b9 17fd ffffec79 10bb 3808 25b8 ad3 4ce 7b6 ffffcb9d fffffff5 ffffe964 ffffd683 ffffd13b ffffe404 ffffc8b8 ffffd8bf fffff7b4 fffff0e0 fffff606 84c 11dd 1bcb 3d45 21ff 2378 6262 cca 1bd 2a56 1ca8 fffff85f 4aca 2e11 999 fffff968 2ed ffffb1de ffffa55b ffff9cee ffffa5ed ffff94e7 ffffc013 ffffbd98 ffffff3b ffffe5f5 ffffe3de ffffc4a7 ffffd42d ffffe3b0 2065 2325 24ec 2e75 5245 2657 fffffcef 10db 46f7 2aac 34d2 66c ffffe922 ffffe384 ffffd7e6 ffffb253 ffff9ba6 ffff86b3 ffffba59 ffffba34 ffffd76e ffffedd3 ffffffdb fffff508 ffffce61 ffffb5b0 ffffad72 ffffb242 ffffc0c6 ffffb06c 947 155b 48bb 1246 1c2 c37 2031 4e39 4ef3 fffffbf4 ffffd8db ffffe6bc ffffc982 ffffb0c4 ffffc6b0 ffffd99a ffffe7fb eb bb8 fffff4d4 ffffee3d ffffe5db fffff170 ffffef49 ffffbf8a ffffa630 ffff5c89 ffff506f ffffa927 5f 198e fffffd03 2a2 a0f 6eb 2281 1bf0 2c ffffe691 fffff91f ffffe98d fffff78d 1a94 1f8f 284c 33e5 1d7e fffff4db ffffebf8 fffff446 14b ffffff50 ffffeeec ffffc74f ffff4fcd ffff3294 ffff72ad ffffd81c 7a7 16ae a10 736 ffffdec3 226b 1a49 1598 14fc 2a51 1203 1123 1993 1e5e 390d 36e1 1615 ffffee4a ffffe2f5 ffffebe0 fffffdb1 f5b 26a6 856 ffffb60c ffff9f89 ffffa13f ffffe936 ffffed1d fffff9cf 1048 1849 1631 2ae5 20c8 1725 22cc 13b2 465 e6e 1078 fffff393 ffffffda ffffffa6 fffff3c1 ffffedd5 ffffe62d ffffd82b fffff103 fffff8c9 22ca 12cf ffffef01 d0c ffffc8e7 e4 61f 482 19ba 43c 37d8 306f e0 42b 1322 ffffb87d ffffb894 ffffd3d3 ffffd897 ffffbbea ffffddbc ffffeba0 ffffe239 ffffe977 566 ffffef4f fffff19e c81 2fe5 16a1 ffffdfb0 7b9 1a1c ad4 24bc 3006 1fc 1ac6 566c 501f 2d1 fffffe8c ffffc1db ffff9c3d ffff7f46 ffff9398 ffffac04 ffffa285 ffffcdbd 58 ffffeae6 fffff3b0 74e a23 fffffdc1 2926 2902 2cf8 2dc5 2bb4 354c 2aed 38b4 34c2 ffffffd8 1ec6 4034 5057 2181 bd3 ffffecae ffffd025 ffffc9f2 ffffb8c6 ffff9c59 ffffa888 ffffc468 ffffd531 ffffd76b ffffefc9 fffffba3 fffffa79 2fe 2205 96a 2270 4b6 ffffec18 ffffe233 cc9 ffffde14 2e39 1a82 2ef2 2f28 64b1 40d6 fa2 e6b cf6 fffffe30 ffffd948 ffffde06 ffffe128 29a 1301 fffff659 fffff550 310 ffffea34 ffffee1d fffffda0 ffffd8a2 112d ffffe275 ffffe68c fffff5c5 ffffee1b ffffcfe4 c4f fffff398 101e 371f 44c3 3711 1d12 1c78 4eb 1886 f17 e80 34c7 485a 56a5 2441 d15 fffff1b3 ffffe416 ffffe329 ffffe1e9 ffffe638 685 fffffa7c fffff2d5 fffffde3 ffffe669 28cd f3b fffffe98 a54 38a4 5171 203f 3c97 118d 26ad 4389 5bb8 4bea 5beb 55e7 62dc 3fb4 2567 252 b6 d1c ffffdd1f fffffc91 6d5 1216 1b26 fffff0f1 fffff2b5 b30 c84 fffff599 1e84 3008 2806 fffff7d4 ffffdb7b fffffca8 1ce4 23db 4026 40f0 5b8a 54be 5c70 4d8d 2a42 23bb 19a3 22b0 fe5 fffff1f8 755 150a 3cfd fffff326 7aa 1e26 fffff440 fffff899 fffff7f7 304e 2c5a 47 ffffde30 ffffe009 fffffd63 18ad 2e30 2c4a 3712 2c0c 1e26 18f1 3b1b 2002 4f4 b7b 2a70 276 ffffff27 19a4 3cde 866 1365 193d ffffffdb fffffe7b fffff876 43e8 4f44 20d7 1607 ffffee38 fffff6f6 3683 32d9 34df 2237 9cd 751 18cf 2e72 1ff4 2f2a 3333 38b4 3219 3523 43d6 4c79 204e 19b6 2794 fffff7f2 666 fffff979 fffffa86 19f1 867 ffffed16 ffffece0 4f 2b3a 39f6 ffffe905 ffffe97e 11ea 3547 5699 3bed 4642 7363 6d75 239c 2e1 fffff9b3 3bd 1123 3ce8 30fe 1386 fffff77a fffff9ec 5f0 2559 fffff7e7 ffffde52 ffffa104 ffffbcf9 ffffbf85 ffff9cfa ffff9d97 ffff8f1a ffff951e 260 1667 1e43 2dbc 56b5 5fb1 377a 2ac6 a66 fffffc63 fffff543 fffff006 826 fffff58f fffff9fe fffffd96 35f fffffc48 8cd fffffc60 ffffe8b4 ffffda09 ffffc28b ffffb1cc ffffbdc9 ffffc0da ffffc4b2 ffffbc95 ffffdb69 ffffd80d ffffa339 ffffac26 ffffbcd0 ffffd28b ffffc20b ffffc5a1 ffffe8c0 59 fffffc1e ffffed2c da 919 739 21e 28 37e fffff98d fffff84e 29 fffff9ee a fffff79f fffff7d6 a0 fffff862 fffff9e5 fffff7b7 fffff45d ffffe001 ffffe21c 480 ffffff06 fffffafd fffffae5 89e fffff4b6 fffff86d 324 7a6 4aa a7 834 270 fffffdf8 fffff9eb ffffff87 fffffa3e ffffff9d 7b2 22b 114 fffffff7 145 7eb fffff84b 536 fffffe36 fffffe17 24b 35c fffff8d6 fffffb86 425 fffff8b1 fffff90f fffff917 fffffe7c 319 2ef fffffe1a fffffd6a cb fffffdb4 ffffff8d 450 ff fffffc16 fffffc79 fffff8ae fffffb87 fffff023 998 350 ffffda88 fffff710 54b ffffe6c7 402 5e97 55b4 4c8b 4e5f 240b 1351 8c5 635 7fb 688 fffffd54 fffff78f be 1f2 1d61 1612 1a00 154e ffffefad ffffc7ba ffffd448 ffffd0f4 ffffa30e ffffc0db ffffd86e ffffeda6 ffffef8c 19e7 276d 8025 6815 6ed2 6c09 ffffffe3 ffffdf86 ffffe446 261 87a ffffff79 6eb 169d c2e 1c40 8c bca d08 ffffd072 ffffac48 ffff834c ffff80c3 ffff8dd1 ffff9d95 ffffc186 ffffd4a5 ffffa772 ffffdc35 514 fffff370 ffffc88f 1e32 6268 601d ffffffba ffffdbf5 ffffe9a8 fffffe45 4ef 8aa 65c fffffeb9 ffffed30 ffffb489 ffff9e00 ffff97a0 ffff7bb4 ffffc349 ffff9d50 ffffa0f1 ffffd1dd ffffdf7a ffffdf47 ffffd975 fffff09f 59c fffff693 fffffb5a 68a 1f80 27e7 37fb ffffed19 ffffc08c dad 23e1 fffffefd fffff7f0 332c ffffe7a2 ffffcac6 ffffb4b8 ffffb9d3 ffffc9db ffffaa3f ffffcd85 ffffb53c fffff285 ffffed35 fffff4a3 b0e 117b c2b 207e fffffce9 149b 1d20 3df2 1af4 ffffdca3 17f7 241b 2da 134d fffffe2f fffff2c8 ffffe2e4 ffffe6cb ffffed28 ffffdae1 ffffd162 ffffd091 ffffb897 ffff9f57 ffffcd40 ffffeb64 ffffe37c ffffe514 fffffd4e 1c44 f60 66f fffffc3a 1039 192a 2203 4d9 fffff6ae fffffd20 5c1a ffffef81 fffff962 fffff8aa ffffd70a ffffe2d9 ffffb8e8 ffffe0e6 ffffe234 ffffb294 ffff9c82 ffff7eac ffffa54c ffffe2b4 140c 1b0a 996 fffffdf5 99f fffffb67 1798 1c87 222 cbd 2571 1580 2dd1 1466 2f7d 1623 2427 289 ffffd4b6 ffffc14f ffffcf7b ffffe840 ffffd2fe ffffddb9 ffffde6d ffff7af7 ffffb2b9 fffff1e6 4911 5e7e 629b cfc fffff44d fffff24a 1101 422 202 ffffed56 181d 82 1ec6 440b 3b33 4bbd 1486 ffffe6f1 ffffd365 ffffdecd ffffcdf9 ffffef96 ffffeb60 ffffc0bf ffff8958 ffff50ea ffffb111 66d 4e87 5862 68fe 2d7c fffff856 ffffece1 ffffe482 ffffecba ffffe33d ffffdf95 1c64 ffffedd4 1cb1 8f51 2ad3 ba4 ffffe5ab ffffe0f5 ffffeb35 ffffd5f5 ffffc280 fe5 ffffd398 ffff93e2 ffff873e ffff5bd3 ffffa2d3 fffff536 478d 5c04 60df 4bce 339d ffffdc9f ffffdcdb ffffd7ae ffffd110 ffffd04f 155c fffff6c7 3436 33f6 aef 9f0 fffffea8 ffffdff9 12c7 fffff5d2 ffffb1ac fffff074 ffffe4f3 ffffc20d ffff934b ffff6f89 ffffa3ce fffff0b0 23f3 4ab6 5db4 3865 1db5 fffffda5 ffffcc86 ffffdefc ffffd80b ffffcc50 ffffdddf a37 5217 41ee fffffe7b 2553 56c fffffe74 70b ffffd819 ffffe3bc fffffb38 ffffd9fd ffffd17b ffff9782 ffffae2f ffffc60f ffffc904 171c 49ba 5274 2c62 1cb3 a17 fffff1cd ffffd164 ffffc7f7 fffffc6b 1e02 3801 84ae 4d44 ffffc876 ffffc9d5 ffffc854 184a d9d ffffd8b7 ffffee3f ffffe1b4 ffffd76c ffffbb10 ffffb554 ffffc67f ffffea66 ffffc8d6 fffff7a5 35dc 284c 3129 4221 1da3 fffff0c2 ffffcbcd ffffcbc4 ffffdffe e3 3255 2f28 ffffe619 ffff9940 ffffae30 ffffd78a 1f85 3de fffffa5d ffffe638 ffffbb3b ffffc313 ffff9c77 ffffac87 ffffdab7 fffff27e ffffedc4 ffffe4f6 6b2 3358 42ad 2d5e 5b3 fffff176 ffffc67b ffffc7ed ffffd136 fffff17a ffffe963 514 ffffe8f8 ffffeb91 ffffcbdf ffffdbaf 1e9f fffff8e0 ffffeb33 ffffb645 ffffc6da ffffc698 ffffae8f ffffd5f8 fffff8af 1737 ffffff63 ffffffbb 1951 2f26 3339 141 fffff63e ffffce57 ffffdbd0 ffffc58a ffffcb67 ffffe68e ffffb9dd ffffb6b5 ffffba1e ffffcf8b ffff933a ffffe493 fffff626 ffffea77 ffffd726 ffffdd6e ffffd459 ffffe63f ffffde3e ffffe74b 1852 2895 2071 2dd9 2887 1237 145e fffff388 ffffce2c ffffcb89 ffffcff4 ffffd31c ffffde0b c0 ffffcca4 ffffc6fa ffffea51 ffffb4ce ffffc269 fffffeab fffff773 ffffe40e ffffaf5f ffffdb1b ffffef91 318 fffff3f7 fffffbf3 15fb 5183 6f66 4a18 20ed 130 166 ffffde2d ffffb83e ffffc29a ffffe201 ffffd6d4 791 3874 158f ffffea04 ffffd295 ffffa8ce ffffe7c1 578 ffffe73d fffffcc7 ffffd2a6 ffffd7ca fffff0e1 ffffe5eb fffff3f3 12a3 20b7 542d 3ec8 1765 fffff90f ffffec5e ffffe299 ffffc06e ffffcec0 ffffdb51 ffffdb53 ffffde45 7ad 54 ffffe275 ffffbbb5 ffffacf1 ffffc7a8 fffffc6a 18fa 1522 ffffef7a ffffe690 ffffebcf ffffcfaf ffffe777 eaa 1307 2347 2e45 31c8 1280 ffffe9bf ffffbe24 ffffb60b ffffc369 ffffe5b0 ffffd923 ffffd88f ffffe4b4 fffffda5 fffffb07 ffffe2a9 ffffde1c fffff334 ffffe859 ffffef46 2485 299 bb2 ffffe94f ffffaa97 ffffbc73 ffffea01 15d9 be4 19d0 79 2931 2786 fffffd75 ffffd2d8 ffffbe24 ffffdbe9 ffffd3d4 ffffec35 ffffe26f ffffe6fa fffff0fd fffff602 ffffef05 fffff63e ffffebe0 ffffd231 ffffedb5 669 df0 ffffef50 ffffe7c2 ffffc076 ffffddc9 fffff011 155 fffffddc fffff076 1de3 212c 366a 16a5 ffffea7d ffffd149 ffffcea8 ffffd59d fffffaab fffff2f1 ffffeb7a ed3 fffffc04 fffff1d1 fffff0b6 297 fffff0e8 89f fffffe91 f1d f47 ffffe257 fffff0a3 ffffdf57 a1f 56d a37 ffffe5e6 fffffabd d3b 2879 3215 294c 109c c7b dbb fffff7ae ffffef47 2a 22a6 fffff599 ffffc178 fffffecc fffffc23 273f f73 e45 fffffd26 ffffff97 ffffb8b6 bd 8dc 1b31 bb4 fffff63f 128d 262 d47 1800 3ed3 3d8d 2a34 34ae 1946 ffffed97 ffffeb87 1cae 2397 fffff160 ffffd20e ffffe9cd ffffd2b0 f32 1588 54f fffffcab fffffba7 fffff1ad ffffd839 ffffbc84 ffffe4c5 ab ffffec18 fffffbf6 fffffc6e fffff554 dce 2527 3912 1e52 2ff3 fffffdcc ffffbb67 ffffd655 1c9 fffff861 ffffe8cc ffffebec ffffe3b6 ffffc620 ffffdc23 ffffdbdb ffffff54 fffffdcc ffffff0e 26f 2222 ffffbf2a ffff91c9 ffffb982 ffffdb77 ffffc193 ffffd8cf ffffcfbb fffffbfa fffff0d5 ffffe2e7 fffff930 ffffc8cf ffffbd8d ffffafdd ffffab80 ffffb830 ffffd017 ffffceab ffffe4f2 ffffec0d ffffe3fb ffffef15 ffffe46e ffffff90 377 fffff86e fffffd8f fffff71e 1779 fffff4dd ffffdeac ffffe3e4 1188 be2 ffffc6fb ffffd0ee ffffced4 ffffb534 ffffad1e ffffbc71 37d 7d4 fffffa1a ffffc1db ffffcc31 ffffd850 ffffdf11 fffff689 7e3 fffff557 fffffa66 230 7b8 fffffcd9 e0 335 fffffcd5 fffff19c 9fc fffffc6d 47c 88f fffff928 ffffec97 ffffe15f ffffb7b7 ffffc085 ffffee59 ffffed5d 830 d71 4f9 fffff993 fffffec9 378 ce fffff955 f7 221 fffffa58 ffffffea fffffa9e fffffd1c 77c 147 890 ffffff31 fffffdab fffff71f 35 251 2f1 1a08 1b0f fffff2d2 ffffeb5a fffffcc4 673 883 702 33e fffffe2d 6de 468 fffffd58 fffff886 fffffa54 1a8 610 fffffd8d fffff754 fffffa6c 178b 21a3 30c7 4c1c 39cc 5fa9 5b1a 54d8 4590 607e 3be2 2b99 978 2d73 7954 5ad3 55ca 550b 26d7 1ab3 696 fffffc38 fffffdf7 fffffae1 4f3 7bd 598 fffff2e7 194e 4902 52d5 7046 7a2c 3aad 2f52 4f7f 510e 2ae9 45d0 32de 882 4210 499d 3832 3332 32fb 5b24 2ffd 44a4 2d75 fffff730 fffffab6 fffffa27 84a fffff14f fffff45d 2652 1683 2a0f 8c6 ffffea8b b75 305 2323 baa 224 2036 22bd 2433 ceb 945 6c7 ffffea06 23ce 1e62 4d1a 446c 3336 12dd fffffd2c fffff79b fffffa32 fffff020 ffffe324 2188 686 ffffef70 fffffd9d 9e4 1c05 d9c 21d6 2e19 820 1c2c b4c 17ec 2667 ffffebbd e9e fffff5a8 fffffa44 ffffeffc 2415 277d fdf ffffff64 9ae 41f ffffff8f fffffd76 ffffb207 ffffeb69 ffffc9e8 fffff7ab 1140 56a1 32bd 172d ffffe549 6e8 ffffd719 fffffa43 ffffe582 fffff594 fffff3a2 ffffc54d ffffe232 ffffe794 fffffb5d ffffec02 19e9 3be5 293f 10af 16c2 fffff6ee ffffff70 2a9c ffffced5 1288 3a98 1caa 32f1 4ec2 271d ffffec38 ffffeaa8 fffff6e9 ffffa1d6 ffff9273 ffffab20 ffffb1a4 ffffdc3c ffff94c3 ffff9f56 ffffb62c ffffdf63 1cf2 5030 2e9c 2090 187c 1fd5 406 ffffe08a 28b5 2e 190e 3a9a fffffed2 2e8e 426f 2c06 eb2 ffffedb3 ffffaeb7 ffff93e5 ffffa560 ffffca68 ffffbdc4 ffffd3de ffffc3a0 ffffc480 ffffd225 1017 338d 281a 1f05 14c5 2bc9 1489 26bf ffffe3df 43df 1248 4797 18d4 6b7 2e4d 3a02 4422 f43 ffffdfee ffffc564 ffff8eb2 ffff9b35 ffffceaf ffffe0a8 ffffdaed ffffcb94 ffffd8a2 1444 14a1 f0 fffffcf0 ffffd393 454f 3164 fffffee3 2014 ffffef29 785 ffffeb6d 1911 ffffd587 ffffc4be ffffef9b 310b 1bb1 3d4 fffffc1e ffffc60a ffff86d0 ffff83e5 ffffb018 fffffd43 fffff1bb ffffdcd2 693 1eeb 2a23 4d8 2ad fffff66e fffff894 ffffc072 ffffc95a 25a8 141f fffff179 ffffd968 fffffb73 ffffc5e5 ffffb93a fffff117 1534 20a9 2463 2fd ffffd1da ffffa624 ffffa394 9a6 ba2 fffff15e ffffe86f 112d a0e acd ffffff3a ffffff47 3034 ffffc028 ffffbbf8 ffffb7d8 1570 38d1 8b9 2448 fffff3c2 ffffdba7 ffffcd8f fffffb0f 2050 4099 30c8 1bde 5df ffffc4bb ffffde95 22fe 22d7 ffffe4ef ffffe88b 3f7 ffffeb0a 388 861 126d 3680 ffffe27f ffffa552 ffffd1f2 5ab 4d9c 203d 3a93 ffffe0fa ffffdd45 ffffd03b 9d1 27a7 1b4c 31eb 2930 1818 fffff956 ffffd5c6 1e5c 24b1 ffffe4d0 ffffe4c5 8ab 18b9 3337 205e 87e 5e97 f52 ffffbad5 ffffcdb8 fffff120 19f2 3f02 15ce ffffcf90 1366 eca fffff508 4c8 f0b 8ab 829 683 fffffa7e ffffe902 32a3 93b ffffe89f fec 2a04 1730 2531 3bdf 363d 2ee1 fffff341 ffffc001 ffffe2c5 fffffbd8 144c 1a7c 22de ffffef79 552a 26c4 a7d 9d4 ffffff76 4cb 18e9 86d 1593 1781 1f53 d71 13d3 577 1468 12cd 112a 4187 3ac9 d14 19b1 ffffa046 ffffdbe0 ffffefbf 71c 1360 3ff9 fffff7aa 1778 1d65 1b76 b43 fffff9df fffff7ce 1e96 2613 432d 3fd1 2b32 acf 695 fffff478 fffff0cc fffff8f1 aed 341a 450c ffffe488 27f0 ffffc093 fffff217 fffff7a4 fffff30e ffffdf77 1373 ffffc2c1 b8b d09 fffffe2a 5a5 ffffd4db ffffd2af fffff44b 2132 3e39 41ec 403e 3426 c66 ffffe248 ffffece0 ffffe9e0 115 fffffb71 1eeb fffff493 35d8 ffff88b9 ffffde2b 1f9 fffff22e fffffd3a ffffff25 ffffc351 ffffe9f2 ffffeed3 ffffda0e ffffd608 ffffab11 ffffa978 fffff883 2af5 5cc5 43b6 3638 2873 e8b fffffd3a ffffdded fffffca1 112c 26d0 1a56 255b 46b3 ffffcd96 ffffe9b6 ffffd013 ffffecfb ffffe658 2168 ffffe157 ffffcb53 ffffb177 ffffcef3 ffffd71f ffffa889 ffffcb2f fffffa99 7603 669f 31ab ef3 ffffff29 3b4 91b ffffd620 ffffd1c5 22b 391 fffff8bc 2e8a 1cda 21ff ffffc390 ffffe776 105e ffffd94c fffffe2b ffffb533 ffffac29 ffffbb85 ffffc5cc ffffcce2 ffffc171 ffffd5d0 4377 7594 4a48 339d 8cf ffffe1b8 f17 c86 ffffdd0c ffffd34b ffffedc5 ffffe865 ffffe7cb fffffcea ffffe476 ffffe719 ffffc510 fffffba8 1bab fffff23b ffffdfc5 ffff9f8a ffff936c ffffac68 ffffd6a6 ffffce4a ffffcfb8 fffff826 4928 7227 54fb 2d4d 249b fffff6f7 fffffe33 1abb ffffe07f ffffe51c ffffe069 ffffbf30 ffffb096 ffffd376 ffffe755 fffff5d6 ffffe752 ffffdedd ffffea19 ffffe3d4 ffffd356 ffffa13f ffffb1a7 ffff9b7c ffffc571 fffff472 fffff3e0 fffff799 32e9 4a8f 5fea 5262 2e13 1838 3aba b04 e8d 393 fffff06e fffff115 ffffdbae ffffca3a fffff4c5 25e9 662 ffffe85a ffffe9e3 fffff233 ffffcd53 ffffd895 ffffb335 ffffa90b ffffbf66 ffffc40a ffffcfaf ffffe1a3 fffffb4b 15ba 268f 12d6 2231 2962 1985 ffffef0c 1189 ffffd161 fffff14f ffffe6f2 ffffb365 ffffc475 a84 39d0 865 45b 7d8 ffffe8d6 fffff063 ffffeac0 ffffe7be ffffce1f ffff86e3 ffffad19 ffffa96a ffff936b ffffc06f fffff64d 652 26fc 2ae3 3364 152b fffffad4 ffffe902 ffffec33 698 1699 ffffe694 ffffce22 ffffffe5 257 fffff74a fffffe6e ffffff13 fffff9c0 fffffb32 35c ffffdef1 ffffb26b ffff6ef4 ffff6cbd ffff970e ffffa3de ffffe561 fffffb6d fffffc96 1b07 b92 2204 fffff050 fffff821 ffffe798 ffffd88a ffffdc35 ffffff83 ffffd8ee ffffe3be ffffdaa9 fffff0d0 fffff8c9 4f2 53a ffffe313 82d ffffec25 ffffcdc6 ffffae62 ffff8e3b ffff8613 ffffa2da ffffc909 ffffef9b ffffd009 ffffc3de ffffde32 16f9 fffff342 ffffdf15 fffff738 ffffd713 ffffcacb ffffe296 ffffce40 ffffdf45 ffffbd1c ffffe1e7 fffff55f fffffb44 fffff9f4 fffffa3c fffffb97 8c5 ffffe25b ffffd609 ffffc841 ffffac78 ffffb1f8 ffff9393 ffffa66f ffff93ca ffff9848 ffffaf89 ffff6c74 ffff86a3 ffffad14 ffff9980 ffffa446 ffffbd0c ffffb62b ffffedea ffffd8dc ffffdf9f 23e1 526 ffffffb6 5d5 53e fffffdda fffffcb7 fffff833 5bf 2355 e37 780 dca 4dd ffffd6ea ffffd4d8 ffffddf2 d08 ffffccc6 ffffe834 fffff8d7 e81 157 401 4a8 58e 66c 739 fffffa91 73d 82a 2d6 fffff96b 24d 10e 103 fffffca5 ae fffffb9d fffffe7e ffffffc9 fffffe8d 5d9 620 fffffc1e fffff8e2 fffff73a 853 fffffa08 744 36a fffff72a 62c 3bd e6 340 fffffa9c 7eb 365 96 276 fffffb26 455 4e6 6dc fffffd30 ffffffed fffff9d2 fffff452 ffffd098 ffffcd5d ffffdf48 ffffd0f3 ffffba76 ffffb803 ffffd75d ffffcca7 ffffd0c5 ffffc616 ffffda3d ffffce0d ffffdf73 ffffe3cc ffffe140 4b9 fffffc04 28e fffff873 fffffdc4 ffffffbe fffff8d5 62b ffffecf3 fffff653 ffffea06 ffffd848 ffffd510 ffffbeaa ffffc217 ffffbc82 ffffa731 ffffda48 ffff9274 ffff7744 ffff656f ffffa930 ffffdef6 ffffaf33 ffffaa0a ffffb7e9 ffffc64f ffffc48b ffffe69c fffffac6 692 fffffd77 fffffa27 6fd d49 598 ffffeccc fffff146 10bf ffffc8e7 ffff9cb1 ffffba5e ffffc358 ffff9539 ffffa88e ffffaac5 ffff82a5 ffffaff2 ffffc5dc ffffe75f ffffe807 fffffdd1 ffffc761 ffffc000 ffffdc80 8c8 ffffed66 fffff32e fffff0ce 802 fffffa40 3ba 205a 9a 8e9 ffffd8f6 fffffb02 ffffc27e ffffce6a fffff56a 14cc ffffdb94 ffffdbfd ffffca50 ffffa940 ffffb148 ffffee87 27c7 235c 23e3 216c 338 42 fffffadb ffffe2b4 fffff0a1 611 140 361 fffffbe4 1de0 fffff2b6 ffffe366 ffffe1ca ffffe700 ffffe313 fffffe2b fffff147 ffffef14 cf6 128d ffffe6f9 ffffcf6a ffffc930 ffffd950 1fe fffffc1e 30a fffff989 1759 119a 1a88 841 790 ffffd82e ffffeb83 fffffabc ffffe8d7 fffffcdb ffffd515 ffffd92e 7c0 185d fffffd63 fffff411 fffffb3a ffffe8dc 865 181f fffffb53 fffffaca fffff46f 2aa 20c7 1442 1793 3ae 2f8e 351e 5603 65f 186b 269 fffffa35 fffffe50 ffffe166 47c ffffe6f9 ffffecda 1896 ffffffb2 c27 fffff9fe 2438 8f0 fffff4a2 ffffefc9 fffff9e6 fffffe90 13a8 fffff0cc fffff5ac 1669 2c21 15c7 1188 30c8 366b 126 ffffe072 da9 fffffaaa ffffe348 ffffdb68 124d 18c8 3238 3647 3d92 3f56 28fc 23a7 ffffff59 ffffd1e6 fffffa86 234d f02 fffffe40 ffffe26e ffffdbde fffffe92 10e2 666 fffff8fa f1e 125b fffffca9 240d 27d9 c45 1b45 fffff793 6a1 2881 fffffca6 259a 2629 2370 956 156 ffffe06f ffffdbfa fffff2f8 fffffe27 fffff9eb fffffffa fffff8b9 fffff219 d71 6be ffffecb8 920 175 19a0 2d86 1a4d 27b2 ffffe7c2 1f93 16a0 ffffe080 ffffef39 2320 180e 16bc 1e77 60b bde 107a fffff7a4 fffff405 ffffdbab 1a2 baf ffffebd0 fffff125 fffff832 b70 fffff431 e5e 2357 2291 34f7 ffffcb63 ffffd67e 16a3 2ab0 fffff38e 28d ffffefb3 1dbb 2010 1f2e 302c 4174 509d 3198 2ce0 1395 ffffde18 fffffa0d e96 10d8 ffffe91f ffffc7da fffff0f4 45 fffff817 4f7 ffffe9d1 fffff6d9 ffffaae1 ffffdcc3 fffff87c aa1 3835 fffff476 fffff925 285c 2192 883 37c2 56b4 4c00 133d fffffcaf fffff3d6 ffffd27c ffffdf63 120c 29ab fffff980 ffffe890 fffffc95 134a 2350 1963 fffff389 10a1 ffffdda3 ffffc9a3 ffffe05d 1fa2 169b 1bf5 fffffa2c ffffd09a fffff065 185b 1e9f 2bee 53cd 1155 65f ffffd912 ffffe400 fffffb96 2ad9 2325 12a0 3a0 7a3 2f05 34aa 2e3f 1b5c ffffdeba 51b 8cd 768 ffffeb78 fffff806 1301 30e7 ffffa565 ffffee53 d6f 15c7 11b3 fffff952 ffffd458 ffffd46d ffffd68a bee 34eb 2140 2887 26fb 3a4 3796 fffff66e fffff798 ffffdc66 3ea 5c7 3ac0 bc9 27e 2e4 4ff 30d5 2ec9 8ad ffffbe33 ffffd6f2 ffffea3c ffffc2d3 ffff96df ffff778e ffffbbbc fffff8c2 2888 50a2 2e57 1d4d 1b8a fffff6dc ffffee5e ffffcd87 ffffab15 ffffb53c ffffe4f2 ffffdee3 ffffd57c ffffe4fc 1977 1e79 17f 1d4d 28b2 c5c ffffb4a6 ffffac61 ffff8626 ffff38d6 ffff222d ffff7462 ffffe47b 1c64 20a9 4c4b 1824 1eed fffffe3e ffffc954 ffffa0bd ffff9738 ffff909a ffff9298 ffffc855 ffffc9f3 ffffcdf7 1507 ff8 420 ffffffc7 ffffd3ef 87a ffffc524 ffffb99f ffff83ee ffff3942 ffff259c ffff4d93 ffffc37c 445f 43c2 33b4 3b16 fffff9bb fffff466 ffffe1ee ffffcf64 ffff976b ffffac33 ffffa69f ffffcd4e ffffdfca 576 ffffe575 30d4 a75 ffffd0d3 6a7 ffffccfa ffffeebd ffff8d69 ffff994a ffff626b ffff29ef ffff5d74 ffffeeff 36de 4dec 5f86 5855 1aed ffffd70e ffffc01e ffffe0e0 fffff065 ffffba82 ffffda0c ffffc762 ffffd0e3 ffffa82c ffffe804 ffffe079 2eca 1326 cd2 2206 ffffde5e ffffe49e ffff8c25 ffff5b5f ffff2a85 ffff6e88 ffffc779 1563 53c7 4f58 5a9b 51da bd1 ffffd587 ffffeef6 e1b fffff7e8 ffffe3cd fffff061 ffffc29a ffffa81e ffffaa0e ffffbdb2 ffffd311 1947 2364 fffff808 345b ffffc861 ffffb4fd ffff4533 ffff1f75 ffff5d4b ffffb7b3 ffffea41 1774 2d9c 55cf 6d29 ff0 fffff3fe ffffeb93 fffff860 171c fc8 26a ffffe6de ffffd2e8 ffffc94b ffffa1d4 ffffa75f fffffadf fffffc68 fffff25a 938 89b ffffd6df ffffcda6 ffff7347 ffff8119 ffffc50d ffffd43b d68 2670 d9e 270b 195d 838 fffffa1f 12c ffffe0b8 1396 96f 1445 fffff0ca 505 ffffef30 fffff18f ffffefb2 2bf5 fffff2c1 671 fd3 b15 1790 ffffd6f4 ffffbf96 ffffd170 ffffd6fb ffffee6e 447 141d 6af d3d 156e 1df9 1d82 16a fffff1f8 ffffe5e9 fffff799 fffff8dd ffffec20 ffffffc0 fffffdc6 3163 1cb2 4327 ffffdfc2 7f4 8e8 fffffbeb ffffeb8c ffffc051 ffffcd15 ffffbcad ffffcb35 ffffe414 fffff001 23e2 cd6 1c7c 31e9 2931 b9c fffffae7 a3c fffff9fc 70e 2ba0 121 19d0 505e 5c8e 1665 1f0e ffffeb37 560 361 fffff9b3 ffffec6a ffffda90 ffffa294 ffffb37b ffffe87a ffffccb0 ffffcf59 ffffec72 fbb 3ba4 1e38 6b5 fffff79d fffff69b ffffef11 ffffda0c 32b4 6e45 388f 3f04 50d9 2f7d ebd 405 fffffc0a fffffd77 406 a2 ffffefd0 3081 1582 ffffda5e ffffee07 ffffe7cb ffffe5f3 ffffef3c fffff8e1 fffffc30 ffffe0d7 ffffd768 17a2 324 ffffcf34 16b 1d4f ffffec8c 1c06 a99 3e6 fffff2ae 1774 fffff501 26c 908 fffff800 414 5f1 ffffdea7 ffffdd4e ffffdf3c fffffc24 7ac f1a ffffe8d9 ffff9992 ffffac63 ffffb238 ffffc3b0 ffffaf91 ffff9c3b ffff86cd ffff9602 ffffde89 ffffe5a4 fffff354 ffffda2c ffffcae1 ffffef7b 1788 eca 383 fffff6f8 ffffff42 fffffa97 fffffabf 436 46f6 472a 616a 574c 3425 25c3 ffffe2a4 ffffeb22 fffff774 3ecb fffff9b8 52c 1c8e 3665 fcd 3b48 291a fff ffffff79 ffffff55 fffff6ed fffffdb0 57 fffff760 fffff810 fffffb55 79e 7b4 917 fffffd82 6ae 8d9 34f 86 fffffa1d fffffedb fffff9ce 31f 34c fffffac5 81d fffff84e 40c fffffd90 fffffced fffffcd4 5e0 fffff979 fffffe4b ffffffa4 fffff832 8f6 fffffec4 ffffffe5 4c4 276 83 2cd fffffb89 843 142 e3e ffffe71f ffffc99c ffffcee2 ffffff10 409b 22d ffffefee ffffcb2f ffffafbd ffffd83c ffffc9e8 ffffd9ea ffffd09e ffffe00b fffff779 567 526 529 fffff71d fffff6e2 fffffef4 ffffdf93 ffffdeaf fffff90c 1a59 ffffface ffffe52e fffff812 ffffe56d ffffc02c ffffb4bc ffffe76f ffffddd1 fffff055 ffffcdef ffffd36e ffffcc6d ffff9841 ffff8eb3 ffffa19c ffffb0ca ffffd433 ffffff14 125c 43a fffffa50 ffffff33 fffffc09 1747 ffffe82a ffffd76b ffffeaea ffffe35e ffffb144 ffffa8ed ffffa2ea ffff9a25 ffff84c4 ffff95ba ffff8567 ffff7125 ffff96e2 ffffb0b8 ffffa1c2 ffffbf49 ffffe217 ffffe101 ffffec9e ffffeca9 ffffe4bc 1542 2b84 fffff445 6d1 fffffafe d9 1672 fffff5cf ffffd370 ffffbf8b ffffc038 ffffcf85 ffffd986 ffffb53c ffffc3de ffffa736 ffffd759 ffffbeaa ffffbc03 ffffc2ed ffffc0a9 ffffd01f ffffc0c9 ffffb992 ffffc149 ffffe6d3 ffffec40 11f6 1ec5 3c99 1cf0 fffff251 687 fffffc2b fffff991 ffffedff ffffbeb8 ffffb290 ffffa8ab ffffb00b ffffb171 ffffb43b ffffb43b 612 560 ffffef79 ffffbdf7 ffffc171 ffffc995 ffffc7f5 ffffbd9e ffffd9cd fffffd1f 1ff3 19ab fffffa82 ffffee6b 11c7 3fc fffff432 fffffea5 fffffadb 391 fffff367 ffffd392 ffff812b ffff9efa ffffb604 ffffbc90 ffffe93b e5b 7ad a07 798 5c0 fffff3c6 677 13c4 1887 2a25 2e21 1ddf fffffd3b fffffd1a 350 41ef c76 acd fffffa0b f8f fffff646 ffffdba8 ffffb91f ffff7f57 ffffbbb3 ffffcb9a ffffedb0 fffff33b 1e5 fffff3f9 b56 1ccd cae 1056 329e 89d 65d 5a1 89 147c c1 fffffc2b 529 294e ffffe838 f54 ffffeb87 1b0b ffffdd48 ffffe171 ffffc9b0 ffffbaa1 fffffe70 fffff9a2 fffffcfc ffffe756 b9 fffff4b3 fffff4ff 1517 9e3 967 a4c fffff740 fffff166 fffffdef ffffdffb fffffb9b 189a 4224 5503 4b2b 335f 4c47 746 3fd5 ffffc1bb 254 ffffda95 305 2ac0 e81 419 fffff964 c27 13ba 273e 1771 1677 d5 1041 432 107d ffffeade fffff389 ffffff39 24ab 30bc 5f06 61ab 96f3 2cb6 748 3e0a ffffd67f ffffdc00 2b45 2a74 5a57 2529 1e3c 1dee 3272 3d9b 4057 3606 3527 1997 1618 1ff ee9 ffffff58 13d9 1397 1fa6 3a20 70a3 5c21 a72b 3892 1a6a ffffe5d8 2716 efb 88a8 8741 49c9 3257 4345 2bb2 24d7 3d11 3410 42c8 5274 3808 14bf ffffe8d5 5d fffff908 2473 19dd 5908 5b13 6fda 5dc5 a13d 47be 61d 12a5 2e1a 39d8 9104 6f97 3e15 40da 2966 144d ffffee74 fffff5fb ffffdcf2 ffffedcc 2577 2497 fffff92b fffff733 fffff2d5 fffff786 a5e 14ab 202d 39ae 24be 3abe 6cb6 50da 1195 7d7 2f24 4d87 637a 48b0 c92 ba0 a49 fffff395 ffffd0c7 ffffb7c9 ffffb7be ffffd4d3 fffff676 fffffa76 ffffe413 ffffef2b ffffdc2f fffffe4a 2ac5 1f59 10d4 ffffd64d ffffd182 32fa 7d18 3f75 ab4 fffffa01 3cd7 6263 1cac 5cd 19e ffffd169 ffffe52a ffffcb81 ffffc1b8 ffffb85f ffffafb3 ffffd3e8 ffffeac1 fffff370 e2 775 fffffdb2 946 cb6 153a fffff1f8 ffffbe45 ffffba2c ffffcfda 720f 40a5 e1e fffff967 ffffe417 ffffeeae fffff27f ffffeb60 ffffe4c8 ffffc0de ffffe273 ffffeec9 ffffce99 ffffdbc4 ffffe83d ffffeff2 fffff46b ffffe2da ffffebda fffffed6 8c1 c76 1557 213 ffffcf3e ffffa69b ffffab4e ffffb412 22ac 20c5 360 ffffee52 ffffd505 ffffdba2 fffffe90 ffffd767 ffffd4a6 ffffd663 fffffbb4 6ef 2038 2437 253c 1f17 897 fffff9c7 fffffe6f fffffbb4 ffffdc9b ffffdb3c ffffe284 ffffe89b ffffce3f ffffa636 ffffa5bb ffffd05a 30ae 224e fffffda0 ffffff72 ffffce45 6c2 ffffe867 ffffd6bb 1818 7a0 1e83 3b74 4cd3 4b15 5209 3b5a 3585 ea6 ffffe777 ffffe619 ffffda11 ffffd745 fffff608 fffff917 ffffcac9 ffff9920 ffffc817 fffffc23 32ee 297d 1ced 908 ffffe7c5 ffffe52a ffffe409 ffffecb9 1ae1 2f2a 3e8a 250c 360b 3a6e 3311 33c9 21c5 ffffeda9 ffffcff9 fffff5af ffffe560 ffffe54e 639 4a3 fffff9a8 ffffdb59 ffffe6ec 150c 1edd 3065 d58 fffffcee fffff8bf ffffcc07 ffffb7c8 ffffd82a ffffeaae 1b86 328d fbb fffff92c fffff385 185d 2750 ffffdf55 ffffe55a ffffe29c ffffe5ea fffff80b fffff86b ffffdebd ffffe6a0 252 4176 344d 4448 2431 2d2d ffffff78 ffffe25c ffffbaad ffffdbea ffffbd9d ffffec85 fffffa61 fffff0cf 8b1 fffff7a4 ffffdb4f ffffd201 ffffe2f1 fffff85c ffffcdf7 ffffc3d2 ffffd620 ffffee8d ffffe0fd fffffec1 ffffe987 ffffecec e45 518d 7c6a 6008 3091 14e9 c72 1b4 ffffe0d1 ffffd439 ffffe8ee 572 3cf0 b77 ffffd983 ffffdad1 ffffc40d ffffb235 ffffabb0 ffffbfd6 ffffd356 ffffe30a ffffd7da ffffdebc ffffefee 328 3221 499a 1969 5a5c 7ea6 49b5 ffffe0b5 fffff75a 1a23 a45 ffffec57 ffffd686 fffff9ef fffffdcd 143 1efd ffffeeda ffffeaa6 ffffc20d ffffd4a2 ffffd19a ffffe5cf fffffbde ffffde51 ffffdeee ffffe372 fffff18a ffffe3f7 2a23 2af7 21c0 75bc 732f 315e ffffea86 fffff48a c1 4c8 ffffd4e1 ffffd2c1 1a1e aca ffffd531 ffffee1b ffffffff ffffd836 ffffc21c ffffdae8 fffffe50 fffff29f fffffc82 ffffff72 7c2 1a05 ffffeb6d 27f 136c 1328 519e 8aa3 574f 39b 8c9 1ef 258 fffffee2 ffffe5d6 ffffd0bc ffffdd54 ffffe070 ffffb7cd ffffcfde ffffdb1b ffffc763 ffffe09d ffffeb87 fffff6d0 ffffeecd ffffe6aa fffff74b fffffc6c 390 ddb 4b32 38b7 275c 2391 5420 68d9 fffff875 141d 8de 246 fffffd9e 1a0f 2b09 fffff94a 168a 198 fffff7de fffff8f9 ffffec23 ffffe24c fffff281 fffffb58 2735 4007 4b28 69ac 5fed 4c82 7068 6edb 6c5b 34da e79 5de5 1be5 b88 21f 29d 7a2 ffffffc6 22f7 46f c7f 1e2f 4f79 68f0 aeb5 6b39 72aa 8092 953a d152 70d9 6b96 74f9 8138 5d7a 9817 8c61 73ed 4703 1a97 ffffe5e4 8a7 fffffcff fffffad3 fffff7d7 ffffff1b ffffff4e ffffc618 ffffbb79 5f5 1f7f 2365 2dac 422f 42b8 505d 3bb1 7c03 3f30 5184 65d5 571c 32ce 230c 3787 4400 2cdc fffffb02 fffffe53 369 fffff806 779 fffff819 249 fffffec1 4de 76f fffffc43 fffffe3c 6df 906 fffff86a fffff76e 5ea fffff9c0 726 91 fffff956 fffff729 fffff9e7 fffffa6b fffffe67 5f4 bd 194 2ac fffffeb0 5b0 fffffd05 fffffa82 8bd 5b8 fffffff8 fffff928 41b fffff707 fffffa4f 7 fffff067 fffff6e6 ffffe88d fffff124 fffff348 fffffd2a fffffb15 fffff099 ffffd4dc ffffe2dd d12 fffffb3f ffffe43a fffff65e fffffa6e fffffb64 350 fffffd34 fffff75d fffff9f9 5a4 2e5 789 fffffc6a fffff3e1 fffffd64 fffff640 ffffe29b ffffcafc ffffc5b5 ffffb706 ffffafc7 ffffb6dd ffffba69 ffffcb03 ffffaff6 ffffa7a9 ffffa14c 1496 a46 2955 135b fffffff6 9a8 13a8 863 fffffbda ffffff0f 494 187c 1d7f fffff280 ffffdb55 fffffade ffffe365 ffffb123 ffff8add ffff6b59 ffff44b5 ffff593a ffff6cb9 ffff520f ffff5703 ffff7500 ffff7f1a ffffc5e9 fffff137 7bc ffffd5bf fffff953 12e0 1882 f60 1333 fffffa64 fffffdc6 1d7 1a23 3c1f 221d fffff788 fffff08c ffffe161 ffff956a ffff57b6 ffff5868 ffffae37 ffffb30e ffffb8c6 ffffa24b ffffbcf2 ffffd5f2 ffffcd6b ffffd657 fffffde8 ffffdaa5 ffffc8df ffffa74c ffffdede fffff108 ffffe603 fffff8aa fffff13b 292 fffff98b 229f 27e5 4231 26c7 fffff821 ffffd876 ffffdefd ffffd312 ffffe571 ffffe800 fffff001 ffffdb1a ffffe86e 549 ffffc87c ffffc000 ffffd7e7 ffffc2dd ffffa9e7 ffffdf36 ffffe4c6 fffff520 fffff7ca ffffd82a ffffe6e7 4b6 2da 57a fffff581 28a8 188d ffffcbdc ffffcea7 ffffe650 1480 b78 ffffe920 1941 1ed6 36a1 2f26 fa4 2582 3bf9 f74 ffffc49d ffffc506 1d59 10fd ffffc25a ffffd4dd fffffc3e 20a6 1b b76 ffffdb86 5ac 2564 a88 ffffb581 ffffc372 ffffc9e1 fffffd00 1a25 10c8 1d00 2a4c 25ea 224b 228e 4f9d 3dfa ffffec2b ffffde65 fffff369 7ef ffffef05 fffff9eb ffffd62c 18e9 3366 11b ffffebc1 ffffdf84 754 1990 2dc0 ffffd9a0 ffffe7cf fffff0d1 4120 32ae 27cf 1419 ffffe460 ffffdda1 110a 35d0 1b29 1c90 ffffe1a5 ffffbe35 ffffb4d2 ffffc1d3 ffffd01c ffffd90a ffffea46 ffffe115 fffffe9c ffffe0fe ffffef48 96a 262 1995 fffff8d4 ffffc479 ffffe89a 105c 2c71 1b11 3373 1878 ffffd258 ffffda8c 2e79 6b8b 458c 962 fffff5ce ffffca41 ffffb12a ffffa23f ffffc71f ffffca92 ffffe16a ffffc0b4 ffffe8ff 1f5 fffff688 3727 ffffeec9 ffffd89c ffffd19d ffffdd77 ffffe37e ffffed13 1bb3 12ce 1847 fffffd7e ffffc89b ffffd6e5 4400 69b5 5f14 2318 8a9 ffffc97f ffffa5d1 ffff9ac0 ffffbfc6 ffffcd45 ffffd02d fffffda6 ffffe8ad 1905 1b2a 1c6a fffffef7 ffffcf02 ffffef12 ffffde1a fffff7f8 295 12cb fffffdef fee fffff9f4 ffffdbff e1e 7225 7506 57a0 47a9 3577 ffffef82 ffffddef ffffd53b ffffc3a6 ffffb0e4 ffffb526 ffffda41 ffffe126 23ac af7 3e2 170f fffff137 fffffc7b ffffbc2a fffff66c fffff569 194 fffff270 fd1 ffffefb6 ffffe310 1e55 5f74 6e50 5a6f 5020 48f1 c5e 632 fffff387 ffffaae0 ffffbf6c ffffd374 fffff369 fffff0cd 30da 1aee fffff33e ffffe7b9 ffffefe2 fffffa55 ffffc18e fffff428 1490 fffffdcf fffff848 1124 8ef 13c1 2fd9 5c7a 4e03 4852 4e8c 443b 2dd6 735 ffffe51d ffffa080 ffff7315 ffffa121 ffffcd18 ffffacc7 fffff1ed fffff9bd fffff78e ffffe20c 922 ffffefc8 ffffc3c7 ffffcdb5 ffffdd7c ffffdccc eb0 2855 331f 3dfa 33a4 3934 2c72 45b8 3a67 4ea1 3a4c fffff3d0 ffffabb9 ffffa459 ffff8cc4 ffffa63d ffffd549 ffffa966 265 fffff56f fffffa47 caa fffff18b fffffc78 ffffb4aa ffffa850 ffffba4c ffffd35f ffffe013 1ebe 2f19 24b0 20ba fffffdd1 2063 5298 5bf4 3b13 c73 ffffbdb9 ffffb279 ffffbc33 ffffd474 ffffb6ed ffff8c38 ffffbe30 fffff12d 704 ffffeb6d a64 ffffe090 ffffe855 ffffac6d ffffa943 ffffcca0 74d fffff805 1b14 3152 1abf fffffdc2 fffff50f ffffff78 32c5 2994 fffff879 ffffca53 ffffb331 ffffb076 ffff9c8d ffffa92f ffff706e ffff50e1 ffffbd6f fffff658 fffff81c 1cf8 fffffe72 ffffbfac ffffc71c ffffdbfa ffffac6c ffff9fe9 ffffe5ee ffffdaf2 fffff551 ffffe747 16b ffffff44 291 ffffe8dd ffffea0b ffffd339 ffffcdb0 ffff8e25 ffffa381 ffffb017 ffffa221 ffffc04d ffffac78 ffffe00f 89f ffffdf5e 34d8 50ba 28b2 ffffd0c0 ffffc85b ffffcfdf ffff84aa ffff85a2 ffff9fce ffff9fa9 ffffcf61 ffffe41c ffffdaf3 fffff24d fffffc00 ffffbf27 ffffac86 ffffb3e9 ffffad88 ffff97fb ffff8897 ffffbab6 ffffaeb5 ffffa9e5 ffff6460 fffff53e 3ede 1bb2 1dd0 fffff2a9 54a8 ead ffffceba ffffb729 ffff8668 ffff9769 ffff8cd6 ffff99ad ffffb4da ffffd612 8a0 fffffd70 fffff566 ffffaa79 ffffa36b ffff9ae8 ffffa46f ffffba4d ffffa8fe ffffb7dc ffffb497 ffffb503 ffff8c3c fffffee8 683 311c fffffab7 8d1 34c3 4159 ffffec08 ffffc38a ffffaa09 ffff97f2 ffffb296 ffffc543 ffffcee5 ffffe331 ffa ffffe445 ffffda0b ffffa3da ffffcbff ffffab5e ffffaa74 ffffc112 ffffa24a ffffcfa5 ffffe10d ffffc4b5 ffffb93a fffffe7d 509 1d1f 14a8 d7e 675 26ab fffff09e ffffda16 ffffdc45 ffffe552 fffff437 195b 2088 fffff2ec 94f ffffd8d1 ffffaeca ffffc846 ffffdefb ffffbb03 ffffc8df ffffb8d4 ffffc837 ffffeb23 ffffbaf1 ffffd98f ffffc8d0 f58 ffffe984 fffffa26 1dba 1e2b ffffeba6 482 fffff5d3 ffffe492 56c f39 29e8 20b5 3263 2ba 1ed fffff766 fffffc27 ffffed66 fffff179 ffffe197 ffffd66b ffffcbad ffffe1a5 fffffa71 ffffc43d fffff441 fffff377 fffff9ed 195f fffffd25 fffffcdc fffff978 ffffb5bd ffffdd67 ffffdd95 fffff92d ffffe7d8 1f83 1b10 ffffffb1 39c ffffff5c 105d 774 80 ffffe97e ffffe314 1be fffff858 fffffe0a ffffe7db 133 fffff174 fffff724 ffffec4c ffffdc93 3824 fffff961 8ed ba ffffe0f2 ffffecf7 2bf0 396f b22 338a 2417 ffffe36d fffff45a ffffccdd ffffaf2e ffffc9b3 ffffc1ff ffffd2cd ffffd831 fffffc08 fffffd70 ffffdebd fffffec4 fffffc32 ffffda07 f47 ffffeb99 fd5 1547 57d 779 fffff8e0 fffffc9d 16f7 4bc1 7741 1abc 28e9 5273 7f3 ffffe8a4 fffff0d3 ffffc2d4 ffffd9ed ffffebf8 ffffb3c1 ffffe214 e3b fffff432 ffffded8 94d 1142 ffffe769 f83 7f0 20b2 e4b 40b fffffd1c 50 fffff78f 1928 52e5 54ab 7cc6 71d7 6bfc 8038 67f2 1aec 2308 24a5 6bb7 4b22 5ef4 7ea6 5832 2806 4161 36e0 1e9c 2b18 fffffc20 fffff851 10c fffff9b6 fffffb35 1ca 229 fffff7dd ffffd913 ffffd012 ffffe749 ffffe23a 31c 19d8 4043 3e21 417d 3166 87f6 669e 4283 5432 4063 3175 447 bf5 fffff2b0 fffffe2d 759 6e9 457 ffffffe0 fffff937 fffffa60 fffffeff 432 fffff866 158 872 694 fffffbb1 fffffdbb 8a5 fffffc2c 59 114 444 815 386 4f8 fffff9a1 fffffb37 737 53c fffff7c2 ffffff9d 64f fffff9b7 3c5 4a6 fffffa13 fffff802 194 291 fffffc36 fffff9d4 ec ffffff53 12be 7a0 fffffb84 fffffb38 359 fffff2ad fffff932 fffff303 221 fffff83e fffffa99 fffffe95 fffff981 fffffd8e fffffe83 fffff97a 8c4 1e6 157 fffff861 218 fffffe92 fffffbb8 3dd fffffb82 1c0 fffffaba ffffdc24 ffffdb12 150c 1f8 fffff7bd 1482 1496 18f6 fffffc54 ffffc0b1 ffffc278 ffffb09a ffffca23 ffffd56a fffff9e0 fffff93b b66 159e fffffd52 fffffb6f b2 12f ffffffe3 1936 fffff4b5 ffffd797 fffff03f fffffe20 d0c ffffd678 ffffd7d5 ffffdbef ffffe578 fffff4f9 2f30 31a0 2fb4 3fc8 a87 fffff120 ffffe4d4 ffffaa92 ffffb38d ffffde33 ffffe39f ffffe40c 28c1 ffffed3f 745 3da fffff587 fffff5fa ffffeffd ffffeb8c ffffdfce 2c02 3e34 20c5 1794 ff 285c 1633 223a 261d 2e11 20c9 2637 207d 603 6df ffffdd8c ffffeece 129a ffffbd22 ffffb06f ffffdff8 fffff50c 601 fffffc8f 2d52 fffffcfa fffffa82 ffffbf60 ffffe2e1 878 a60 4f9 2345 342e 1976 24d0 10e5 85e 3111 2e10 2cfc 399e 1dbb 1885 14eb 11f1 ffffc85f ffffb841 ffffbe52 ffffe3ca 3cb fffff57e fffff549 fffff2d9 ffffe3f5 ffffb3a8 ffffe958 1cbc fffffdf0 1359 1d20 2130 148e 185a 2db2 17eb 2597 afd 1b9d 210f 22d5 129d 1473 7b7 ffffab57 ffff86c9 ffffc2ef ffffe261 7d2 fffff9c3 ffffd5df fffffedb 2260 14fc 1152 fffffbee fffff455 53 168e 2227 133a 24f5 2f95 2d9f 3140 427 3fc ad4 394 19ae 1e26 fffffbca ffffdaad ffffa319 ffffaab4 ffffff98 83e fffff9de fffff184 3bc 3e16 e25 ffffdd0a ffffe2ff fffffbed fffffb00 147 fffffa27 ffffe52c ffffe43e 33a8 4e42 54ce 2fc8 13f7 1534 88 c5c fffffd1e 17f5 ffffd9db ffffdcaa ffffdf9b ffffef34 250 ffffe315 ec2 ba1 4172 b43 ffffd957 fffff337 fffff870 fffffb3d fffff296 ffffd881 ffffd254 ffffcd6b ffffe6ff 2535 409b 318c 378c f8a 39e 7a6 e86 246e ffffc544 ffffe1be ffffb393 5c6 ffffff14 ffffe6ed 1518 1c9d fffff2eb e25 fffffd1b ffffe98e fffff3de fffffe4a ffffd37d ffffe00d ffffd1f0 ffffa590 ffffb2bb ffffd1c0 259 33de 24e9 fffff596 5a8 1e73 3734 16d9 ffffe566 ffffcb21 ffffcfb2 af8 2f3 ffffe690 ffffb7cb ffffdcfc ffffef5a ffffeba8 ffffeea1 ffffe6db ffffddde ffffdde4 ffffdcf2 ffffd769 ffffa31e ffff82ec ffff76be ffff882f ffffbf1b ffffe960 a1b 1682 27a3 35a7 351a 859 fffffc96 ffffd8e4 ffffced6 ffffe2cb fffff793 ffffeae1 ffffe000 19a7 4f4 ffffdd9a 46d ffffb920 ffffe60e ffffdb69 ffffd58b ffffc78f ffff9fa1 ffffa267 ffffb6e7 ffff8103 ffff988a ffffb57f ffffc8fd fffffd0a 1d26 25eb 1e39 a39 ffffe4e9 ffffd149 ffffccba fffff715 4be ffffe422 ffffdfb2 fffffca4 37f1 552 fffff3a4 ffffc7fc ffffcabb ffffc7bb ffffcd27 ffffc6cb ffffc674 ffffd7e2 ffffe5e0 ffff9d51 ffffa776 ffffb80f ffffc262 fffffad3 9ca 3437 1bbc 14b fffff7a4 ffffdc30 ffffe6aa 1e31 ffffe4f7 ffffc58f ffffb670 fffff47c 27d5 adf 71 ffffefe1 ffffbbc6 ffffba0c ffffb313 ffffc9ff ffffeb97 fffff375 2ee ffffcbde ffff970b ffffab59 ffffc2a4 fffffbaf 1894 2f03 250b ffffed78 fffff3cd ffffdb4b 4897 2aea ffffe69e ffffe462 ffffa10e fffffa9c 1314 264d ffffed3b fffff006 ffffd89a ffffda38 fffff715 fffff4b4 ffffec39 ffffe506 ffffd667 ffffa6b2 ffff9a78 ffffb081 ffffd389 4d0 15ca 139d ffffdf90 ffffc34a ffffe0da ffffe5a6 62c3 280d 139 ffffe2be ffffc5c7 ffffee1c fffffcf8 823 ffffe5d9 ffffc835 ffffd640 ffffd3d8 ffffde28 ffffe571 ffffea8f fffff0d1 ffffbf70 ffff8c26 ffffa2a1 ffffcb57 ffffffb4 289 373 ffffe58d ffffbdb7 ffffaf3f ffffb2d7 900 4b44 18fd 208 ffffdb23 ffffc4c1 4e7 fffffd6c ffffe2c3 fffff5c6 fffff7b0 ffffe423 ffffd6a8 ffffec19 ffffcd69 ffffdb99 ffffd5e0 ffffa21c ffff784a ffff9e31 fffffce3 2b7b 773 fffff04f ffffb7d2 ffffc6f8 ffffd09c ffffe1e7 6280 4374 3fa1 fffff369 666 ffff8ec8 ffffddf8 ffffdba0 ffffd182 ffffeb80 183e 961 1747 31b fffff59b ffffff44 ffffdc7a ffffb360 ffffa91c ffffe451 2974 3910 fd2 ffffee31 ffffdcb9 ffffe522 fffff6c5 ffffeb6a 63d1 60a9 3dc4 ffffffb2 fffff707 ffffd18b ffffd23c ffffd54c ffffed34 103c 10e2 112a 2015 c82 2658 41d3 1b2f ffffeec5 fffff8aa 22c0 3fc5 3044 1343 14ce ffffeed7 fffff1b6 ffffddf2 ffffc86e 4233 5cd3 1d8f 2e1 250 a5a 8cc 94c 3d0d 243c 8f5 1662 2395 27d1 4629 55f2 3894 2c4b 55e5 69b4 4003 1f0d 1ff3 13f2 19e6 fffff9a4 92c fffff689 3381 2fcb ffffe7c4 4a9 cf3 292f 3da1 b39 4120 30b7 fffffecd 2b06 2a30 36c2 3bb6 437c 3859 518f 5e47 6372 3822 25d8 3009 11e5 1b60 38d1 44b6 466c 5089 37a3 f86 fffffb86 fffff161 3009 20ea 401 4afb 3e43 1512 4e1d 4277 3106 3b1e 37b3 2f4a 39e1 380a 3abd 352e 337f 1b7c 19c6 17ca 4d5f 252a 409e 1de4 f84 1888 43d 1a8 ffffc3d3 ffffd159 ffffd110 8c9 228c 19a7 229b 1ef5 2375 48e3 46e0 3575 3aec 193c 353 fab e01 1408 2272 3dd7 5f42 317f 21a4 15f5 ffffefe0 2e4 ffffff26 fffffe2f ffffd7b6 ffffc3bc ffffd2e6 ffffea85 ffffe970 6ff 13ef 2411 e79 1ba2 2895 6dc cff 2750 d4 148a 1f22 9b 35fa 1b33 4563 4e2c 2d5f 388b a5 fffff786 fffff8ec 72a 496 ffffd3af ffffc79b ffff784c ffff85ac ffff8be3 ffff7296 ffff7151 ffff8c0c ffff9237 ffffa123 ffffa922 ffffb3ce ffffbb58 ffffaddf ffffc28c ffffccb8 3a44 6c98 5675 384d 3565 1c93 e3 ac3 fffffbf4 fffffc6a fffff92e 60f 27f ffffea5d ffffdf68 ffffbcef ffff9912 ffff7dee ffffac3d ffffa8df ffffab61 ffff75f2 ffff6fce ffff680d ffff8367 ffff9fdf ffff80c6 ffff96f9 ffffd3ca 18b0 18ea fffffa20 ffffffce 205 1f1 8b5 35 ffffff00 215 fffff85b 592 680 16d 68d fffffb1c ffffee1c ffffe1e6 ffffcb86 ffffcd2b ffffd1e5 ffffaf2a ffffb0a4 ffffb668 ffffc158 ffffbe51 ffffcfdc ffffda64 fffff1a5 ffffef3d 103 ffffe3aa 36f 3d6 fffffc49 fffffc96 fffff6f0 fffff8a8 fffffa6c 2a5 fffff722 fffff7d9 295 fffffae9 fffff85b ffffff43 5c2 524 cb 5a9 fffffd5d ffffffc1 fffff9f8 fffffc23 ffffffa3 fffffcc1 1fc 750 398 212 625 fffffca0 fffff888 553 321 2e8 7a7 fffffac5 fffffe6e 338 fffffbca 38f fffffd79 bc 386 fffffa09 7b4 173 fffffcd8 904 fffff7a7 fffffd7e ffffffbb 99 fffffc54 fffffc39 fffff8f0 ffffff29 5ea 59f fffff7d3 fffff810 fffffc7f 726 687 919 fffffb79 803 fffff8b9 36a ffffff61 912 fffff885 7eb 1ad 907 146 fffff792 625 843 fffffa53 fffffb8b 7f9 fffff796 fffffcab 8e6 fffffc90 fffffe41 82a fffffc9c 1a fffff6f8 2a2 64e fffffdc4 fffffdb5 28 fffffdc2 632 fffffeae ffffff6a 2b9 fffff96a 613 fffffa62 829 4db fffffa68 fffff7fb fffff90f fffff714 fffffe21 26c 320 c1 49d 203 fffffe77 fffffdd3 2c9 fffff93b fffffd74 55e 842 84c ffffff69 ffffff1e 3ca fffff6fd fffff796 fffff738 fffffb0f fffffaa5 fffff900 fffff308 fffff1f5 fffffaa3 1f4 fffffe1c fffffc3a fffffeb0 5e6 31a 2fd fffffb4f fffff9d1 59e bc 4b1 91d 313 fffffe2c 57e fffff842 ffffff12 6b1 1d8 fffffce9 fffff5dc 28c 36 fffffe71 fffffcfa fffffd59 fffffe16 fffff939 fffffc58 fffffa75 fffffa1e 54d 3ba fffffe05 fffffad9 6d2 fffff7e8 42a 149 34f fffff89c fffffbf7 4d7 590 fffff9d3 7e6 6a7 fffffe3b fffff5a2 fffffcd5 fffff3a2 fffffe7f fffffc7b fffffb2a fffff6aa fffff584 4db 177 1e9 711 fffffb75 567 fffffe08 ffffff7a fffff879 fffff74f 8d9 529 439 fffffad2 4f0 5d 378 fffffe11 fffffed1 fffffaee fffffae4 fffffb1f fffffc86 fffff93a fffffc9c ffffefc3 ffffff06 44a f0 37e 20b fffff631 46e fffff822 fffff930 fffffbe8 fffff800 13f 8b6 5ab 222 fffffa25 fffffe40 fffffd12 750 b fffff933 a ffffed66 fffffa5a fffffb51 fffff5f3 4d2 fffff9db 2af fffffa7e 3b4 fffffdc0 ffffff11 9c fffffaf8 fffffeb6 fffffece 39c fffff768 fffffcb1 642 fffffc07 fffffbc5 fffffe87 fffff9c1 734 fffff6e3 fffff847 fffff633 fffffa32 fffff261 fffff9d7 fffffa52 fffffcdb fffffba0 fffffc7b 78f 37f fffffd3c fffffdd8 234 fffffaa6 8d5 35a fffffd5d 3e0 fffff856 263 fffffdb0 5a0 74c fffff879 272 fffff926 fffff88c fffff669 3e2 fffff8df fffff27e fffff172 fffffe1b 3ae fffff80b 39f fffffa29 fffff89f fffff81f 24f 481 263 5a8 fffffa9c fffff845 70c fffffe6a fffff75e fffff9f4 24f 6af 915 ffffff3f fffffdd7 fffffee8 fffffe67 fffffcc6 fffffded 35 fffffab5 fffff880 fffff6de 45a 1ec 4b4 228 2a6 fffff714 5f5 fffffdc7 597 7e1 44b fffffa07 fffff935 fffffafc 523 603 fffffada 497 579 5bb 549 fffffe83 fffffb21 fffff577 fffff7d4 fffff3a8 7 fffff4e1 fffff700 fffffc80 fffff700 59f fffffa38 fffffe6e fffff761 3d3 4cb fffffeb7 fffff74b fffffdbc 204 fffffa99 75f fffffc62 54c 6ca fffffe5a fffffb7a fffff7bc 411 831 4d8 fffff3df fffff825 fffffa88 fffff518 3f3 fffff9db fffff6dc 206 fffffdea fffffd26 fffff92c fffffd3f 3bb fffffd6b 18a fffff6e6 fffffd88 5e1 fffffc13 ffffff70 742 313 3fd fffffc0d 7a6 fffffd03 fffffe3a ffffee37 fffffe85 fffffb57 fffff3e0 fffff927 fffff4b8 fffff10d fffff78d 739 fffffce8 fffff958 fffff978 3f7 fffff6ea ffffff64 175 9f fffff7a7 fffff913 fffff76c 777 fffff9da 6ef fffffa65 818 222 fffffcb2 628 ffffeede fffffe1f fffff1a4 fffffd51 459 fffffe39 3a1 fffffa1b 693 326 3fa fffffc3c 5cc fffffeec 5b1 fffffc94 fffff823 ffffffdb 10a a1 fffff9b4 fffff900 491 fffffc8f fffffadf fffffe5d 181 fffff88c fffff787 ffffeead fffffd94 fffff661 259 fffff77b fffffece fffffee9 ffffff6f fffffebf fffff8c7 7f4 68 b4 fffff8bd fffffe23 fffffccd fffffd4f 5c7 fffffaf0 fffff72f fffffffe 2b 655 1f2 fffffc58 fffff85a fffff299 fffffb2f fffff7f9 fffffcec ffffefe1 fffffb73 fffff7b0 fffffb31 fffffcb2 fffffa94 fffffaf2 fffffd2b fffffcc5 fffffcef 144 74f fffffe56 fffffb9e fffffe9e 6ba 38d 2fa 518 58e ffffff3d 327 fffffbca fffff029 fffffcd4 fffffa10 fffffb2a fffff9de fffff5a1 fffff489 fffffa9d fffff9aa 587 355 fffffa0a 207 fffffc52 fffffade ffffff09 76d fffffd02 784 4da fffff7e3 40a fffffdfa fffffaf3 fffff96e 52a 4f2 ffffff97 fffff129 fffff08a fffff948 fffff518 fffffb1e fffffad6 fffff639 ffffee72 6cc fffffb41 302 44b fffffdd6 fffffb38 2c0 fffffc10 fffffb51 fffffa9b 8e4 ffffff27 fffffce5 289 323 fffff852 fffffab6 fffffe45 fffff8c1 fffffc37 fffff874 fffff5be fffffd2a fffff69d 115 fffffd4c fffffb2f fffff63b fffffb22 fffff7d3 fffffc7e fffff984 fffffb61 213 fffffb28 fffffc2e fffff711 fffffbd7 fffffffe fffffa4f 239 186 fffffb68 fffffb24 575 56 72e fffffbe7 ffffffa3 fffff4ab fffff5da 4a5 514 fffff810 fffff73b ffffef8d fffff4aa fffff7d6 fffffb18 fffffa82 fffffd51 fffff7b7 fffffa5f fffff6f6 fffffac3 c0 2f7 fffffd51 47c 3f8 86e 7d8 37 4d9 fffffd4f fffff99e fffff2a7 fffff5ef fffff1f9 695 fffff94e fffff5f6 672 fffff0e9 fffffe86 2bf 2db fffffcdc fffffcce fffffd11 18e 54b 854 fffffd09 fffff9ef 3dc fffffb91 2b1 fffffef4 fffff9af 1ca fffff75c ffffff90 fffffeed fffff287 fffffeb2 fffffc44 fffff2ab fffff36f fffff533 fffffe70 ffffef84 fffffc27 814 848 54d fffffc91 fffffb9a 7c0 fffff7b1 2f5 fffffcb3 fffffc32 fffffd4c fffffc9a fffff97b 15d 80e 84c fffffce3 34 2ba 415 34c 248 fffff6d2 fffff685 fffff706 fffffc48 fffffb4b fffff7ef fffff7ca fffffe33 ffffffb4 fffffec6 119 fffff9a7 395 1df fffff9f2 fffffeb8 fffff925 527 21 4 1f1 6e3 478 1d5 fffff802 1e2 fffffd0c 455 7ca 4e0 fffffb71 5e3 21 5de 5c7 fffff7a2 fffffb7b 568 56d ffffff55 6a fffff702 fffff899 fffff7c4 fffff7b8 368 830 1ae fffffcf7 fffffc71 6b6 94 fffff726 4f4 223 fffffab2 fffff85f 613 6c0 7fe fffff9bd 65 fffff72f fffff9d6 680 5fc fffff7d9 fffff976 fffffdfd 361 577 20c fffffdaa 658 fffffd83 fffff7c4 fffff7ce 171 fffffd81 17d fffffe57 2e 728 621 fffffad7 5f6 655 548 374 19f ffffffe1 fffff7a5 48e fffff7f6 7ff 119 7b fffffc38 fffff86b 17b dc fffffd1a 876 fffff741 ac fffffcaf 707 3bf fffffc90 651 40b fffffebf 21f fffffa2b 7 fffffe47 471 fffff8ba ffffff07 fffffd42 4aa 35f 467 fffffc55 fffff755 fffffd24 fffff8f9 fffff86b 64c 592 fffff773 fffffa3a 53b fffffb53 fffff7c4 171 d5e fffff5e7 fffff8c4 f4f fffffeaf ffffcb55 ffffe9b4 fffff79e 1b36 a14 8b ffffeded fffff116 fffff911 ffffedc1 ffffe784 516 fffff86b 436 437 45e 473 34b 914 ffffeb84 18de 22b8 ffffead0 a54 2ce8 fffffef8 ffffcf66 ffffc21a ffffacc8 ffffb037 ffffbd3b ffffcd66 ffffe893 ffffd859 ffffd71b ffffb642 ffffaf6b ffffbafa fffffcfe 243e 1cb0 fffff8fe fffffaff 19f fffffc95 184c 2738 fffffbca 34a 1295 17b5 1e60 3559 118a ffffc964 ffffdb6c ffffb961 ffff9cef ffffcc2c ffffb0e6 ffffb931 ffffda7d ffffff93 ffffea3e 2 ffffef55 ffffc1bb fffff1f4 1971 1d6a fffffa71 86a ffffea2c f7d ffffe75f ffffe9e4 ffffe6b9 14f fffff67e fffff655 1179 fffffe04 ffffeb48 fffffd89 fffff3ed 3c7 fffffa5f ffffe415 ffffe7ef 1a54 fffffc69 fffff68b 71e fffffe70 129f cc2 3ebf 2d83 fffff143 ffffff35 fffffc7a 2029 ffffe0bd ffffea41 ffffe8e6 fffff303 ffffe863 fffff805 1670 1bb1 2fa0 1b8f 1365 19b fffffab8 e11 ffffe4ac 6e4 ffffefcc ffffee7c 1252 2cc6 23a5 5b3 4cd3 209c 53f 403 fffff8f5 1820 fffffe3c a5d fffffffe 19b1 ffffe7ea fffff956 2258 4fd3 3d45 2f02 312 e2e fffff230 ffffef81 516 2a48 3419 1c28 1f4a 3210 201d 49bd 71f0 45a6 7a3 194 237e 2863 2765 ffffe196 ffffee4a ffffffa9 932 2f91 36da 26d2 1aa5 17e4 1416 12ef 52a 270d 342f 4f86 4f3c 42fc 3eec 514e 3437 ffffed41 3893 3b97 2f1 fffffc93 4ff6 2540 7c ffffe58f d13 e74 38ad 3aab 1785 1653 2a8b 2076 2be1 4ddd 30e7 a23 2aad 2776 3a3d 3ddc bdb 2d1e 44e1 ffffe99c ffffebdd 461b 40af de9 6258 12fd ffffed02 1b0c 3d1d 4212 35f6 35a7 28d4 33b5 3d07 5525 4aaa 51e8 3b0c 5b2 e59 fffffe41 fffffe0a fffff8a3 fffff0ab 1b1d 2ada ffffc82a fffffca7 172a 17c4 fd4 5157 3524 fffff05c 36f5 77f8 5869 215b 2ce6 3f26 5c28 4214 2c4b 33cf 27a8 fffff913 ffffd239 ffffb260 ffffa595 ffffc15c ffffc19e ffffb963 ffffcd0a ffffb6dc ffffaf91 ffffff4e 40ca 28f9 2739 3e2a 30cc fffff5b0 455f 6f02 41cf 34d5 104a f87 1aef bf0 ffffe408 ffffc15f ffffc991 ffffc92c ffffc3e2 ffffb311 ffffd732 ffffc174 ffffa9d3 ffff9511 ffffaaeb ffffa733 ffff8966 74 1cf8 c85 777 4b7a 466b ffffdbc7 16f0 1d7b 5e0 2350 2d8 ffffd489 ffffb8c0 ffff8dda ffff7739 ffff5e9e ffffa6de ffffc9bc ffffdc5e ffffe877 fffff93f ffffc2fc ffffbb71 ffffc42b ffffa348 ffffa367 ffff9373 fffff3c0 1a96 12b0 1f02 3555 5bb6 ffffdedf ffffe3f3 ffffc43a ffffaca7 ffffcae7 ffffbc0e ffffb44a ffff9bce ffff6ce1 ffff6e23 ffff9891 ffffef25 ffffd47d ffffe55b fc9 fffff5bb ffffc355 ffffd86e ffffdd73 ffffc4c3 ffffc8fe ffffb9e2 fffffe23 362b 1ef4 1acc ffffce68 2c19 ffffd751 ffffa0ba ffff2db4 ffff3de9 ffff6035 ffff623d ffff7dc3 ffff933c ffff8444 ffff94dd ffffd054 186e fffff2a2 ffffec8d fffffd82 414 fffff1c7 ffffe88f fffff434 ffffca21 ffffe4eb ffffccfa ffffe296 7968 35e0 2974 ffffe2f2 fffff4f7 ffffc992 ffff5e32 fffeedb4 fffef6f4 ffff007c ffff48ea ffff967b ffffc300 ffffc91f ffffe097 1dd2 82e fffff67b ffffe97d ffffd764 ffffdfc7 ffffcee5 ffffcd9d fffff4e6 ffffc82b ffffe30b fffff30f ffffe1dd 5fce 3225 1e26 ffffe378 ffffe1b9 ffffc240 ffff3b75 ffff10b4 ffff41d1 ffff5e5c ffffaf65 ffffe14d fffffa29 ffffe70f fffff741 2a46 1dc8 34f ffffeebc ffffe221 ffffe10a ffffe3cf ffffdda1 6a3 ffffe1fa ffffd611 15d5 2499 7377 46a4 fffff7c2 ffffe06a ffffb551 ffffab74 ffff7ee4 ffff6237 ffffbb2f ffffeb29 2bcc 669 ffffeb65 ffffe257 fffffc98 3757 2a5a 1c2 fffff72d 423 a33 ffffefa8 ffffcb45 ffffed04 ffffe07b ffffea1d e4a 70c4 7b66 4ef4 fffffde6 ffffef7c ffff8c00 ffffc3b0 62f ffffe0ab fffffa79 394f 42b1 fffffb71 ffffe387 ffffd7b6 ffffeff7 3b6a 3dd2 18d8 245 a9e 1272 811 ffffdc4e fffffd19 ffffeb60 bd1 629 34f6 74ac 4cf9 6e fce 708 ffffd1c7 2569 ece 3522 2451 5437 17de fffff29c fffff48f c49 507a 3616 3d54 192b 46e d6c 19ee 1504 ffffec15 fffff6f3 d3c 1e08 4fd1 54b9 41fb ffffffe2 50f 28d4 2be7 5600 4a72 4d65 3d2f 5951 3194 1e3b 2520 2da7 2ffe 195e 3469 277e bcd 2511 191b fffffac5 fffff8d1 91e 37ea 4302 7191 4767 c1e 14cc 8e2 a7a 476b 47e3 2b1a 1906 1ae4 21cd 27ed 4071 207a 322c 1f0d 2e49 38e5 1989 1547 2075 17cc fffffee2 3510 27c6 4832 6727 5cd2 1b22 fffffca1 1c81 2c9 2220 bd7 47e7 4a00 12cf 2721 29d7 1d67 ddf 51 1119 fffffeac 1577 b6c e39 8ac ffffff2a 22f fffff95d b0f 2d1 3658 5303 2b46 ffffe9a0 fffffa5b 1b8 fffff9a2 ffffd2a5 ffffc185 1d70 23f6 2c03 f38 fffffc92 624 ffffffcb 636 1151 fffff4b7 ffffdf1c fffff152 fffff6b5 fffffab6 ffffe465 ffffefee fffff028 fffff9cc 115c 2930 4f1a da6 3002 78 aa 67e ffffeb96 ffffea7d 1317 f28 2273 fffff47f ffffff4f 113d ffffe832 fffffc4f 0 ffffee5b 170 46 fffff0a3 2509 382b 3336 696 97 fffff96c fffff717 5639 34e3 2507 184 fffff833 ffffff8f ffffd2f0 49a5 3b01 fffffd3e c3a 36fb 30ac 3add fffff23a 1d1e 3833 29a2 3156 4021 3fab 2d94 4daf 49fc 1489 fffffead 1064 aed 1407 cc 22af fffffdee fffffb08 fffffe07 ffffff07 fffff057 ffffdcc7 ffffdb40 fffff35b 2029 3a6f 13e6 ffffcddd 13a 39e 3f80 6583 614c 14a8 ffffe7c2 288f 5033 1ffd ffffed86 ffffef7d e47 fffffb3f 137b fffffe2f 68a b9 8d9 231 e8 4396 4f71 7889 7f11 7ab4 5778 6b8f a750 b356 9f0c a929 5323 3941 3eeb 79f 150c f66 fffff272 fffff250 fffffbd0 fffff98b fffffea3 fffff96a 8aa 34d fffff91c ffffff39 3e1 fffff8b1 1ba 1fb 739 c6 2a5 11f 88 ffffebda fffff0c0 113a ff3 626 419 fffffa4f fffff926 fffff753 fffff7f8 fffff7b5 fffffbd4 fffffb0d fffffb5b 6e3 8c fffffe8d 7c3 28f fffffb47 ffffef62 ffffe972 ffffd19f ffffcfae 173 fffffe22 3cb 557 30b 2031 7e5 ffffdafd fffff7f2 ffffe60b fffff17f ffffe918 262 1ca ffffd2a3 ffffe234 fffff912 4b5 541 324 fffff9f6 39b fffffd97 124 ffffe2b6 1f5a 161b fffffe53 2235 390a 384b 436d 3405 ffffccd7 ffffe45c ffffcd21 ffffd189 fffff411 ffffe878 ffffd3cd fffff505 73ab 6e90 3add ffd 596 fffff795 5b9 336 5d4 ffffe668 ffffc697 ffffef95 1296 a44 1b41 fffffd07 1fc3 1c6a 34b1 ffffeafb 12ae 1bac 1910 6a4 ffffef42 ffffdc50 ffffb54f ffffb6e3 1590 4d53 5deb 31e8 7c9 efa ffffff5c fffffea0 ffffe19b ffffe71a ffffcce4 fffff81d fffffbf6 df6 1512 ffffeecf 57e f13 1d71 35fb 3252 4d8b 35b3 2589 bd8 ffffff83 18cf 1a36 2ac3 3e95 3169 2fe4 18a0 b53 2b2f 2d0 fffff959 75b ffffdd20 fffff63e ffffb58b ffffe560 ffffe924 ffffd64e ffffe6d6 8f3 3935 4e26 2c8f 4078 1b08 29b8 1a55 1476 24cd 239c 2fed 707 fffff330 2b2d 5ee6 f0d 1514 fffffa3c fffffeb0 ffffea73 ffffc10a ffffe81d ffffa53d ffffc276 ffffe34a ffffdd55 ffffded4 ffffefc8 7ac b9c 332 7f2 fffffe74 fffff951 fffff97d ffffda23 5c0 ffffe88c 5f9 995 2aa8 1db7 5d99 fffff6e4 ffffe9d8 c1 ffffdf37 ffffe32b ffffd09c fffff6a7 ffffd6c7 ffffd72e ffffbd7c ffffe928 ffffec05 fffffcd0 36f ffffee52 fffffb74 ffffe179 ffffe383 ffffdc4a d0 ffffeb9c ffffd198 ffffc97b 1502 2c13 25f6 4e35 6627 270f 6b 2721 ffffdecd 1637 ffffdecb dab ffffe10d ffffe62d ffffce9b ffffcd2a fffffb83 ac fffffcf0 ffffe654 26f fffff25e ffffef11 6f5 364 fffffecc 28c ffffe9b4 de5 ffffda48 fffffe52 4029 715f 577f 81b fffff8de ffffd9ba 1908 f39 7e5 fffffa0d ffffe4ef ffffcfcc ffffd172 50 fffffdf8 ffffd335 ffffd974 fffffc95 fffff185 ffffea80 7e3 210 fffff0e8 6c2 23a 605 ffffbd37 fffff9f6 490e 27a4 20 ffffe4cc 13d ffffd4d2 9e 11bb 37ce 36d9 2074 fffffee7 b6 1819 fffff467 ffffd6ad ffffd6f9 ffffd6ea fffffb58 ffffd471 ffffcef8 ffffef6f ffffed3b fffff820 ffffd9ad ffffe905 ffffc3b4 2913 3558 ffffe3bf ffffe8e3 ffffe35a fffff82d 186b ffffdeba 19b c1e 3bce 54fe 22c6 1cc5 356e fffffaae ffffd90b ffffd694 ffffb083 ffffdb0c ffffb930 ffffc202 ffffd4d6 ffffc271 fffffd93 ffffdd01 ffffdb35 ffffce8e 741 2c2e fffff582 f9f ffffe627 fffff712 fffff321 ffffdb64 a30 d1 39a3 51e7 2e54 1ad1 2921 fffff272 ffffe71f ffffbfa9 ffffc012 ffffb524 ffffb62c ffffcfb9 ffffdf0f ffffcaa2 636 fffffe9d 590 1a70 36e2 7ecc 563 fffff375 ffffee32 fffff7df 1983 ffffe764 ffffecbb fffff904 3ad0 3a6f 414d 429c 37be 2a6c 15cd ffffddf6 ffffcb01 ffffce01 ffffe234 ffffe25c ffffd4dd ffffef87 eaa fffff134 1241 54f6 57db 949 4695 4f4c 339c 9c7 ffffe029 ffffc4a0 ffffd5dd 267f 2cf0 3bf7 4202 3c12 4d63 688d 76fe 1a3b fffff9ea fffff0a8 ffffecfa fffff171 fffff34f fffffd68 fffff897 ffffee92 15d4 17a4 ffffe580 fffffeae 7a62 65ec 374f bf2 ffffe86e ffffefdd 2d6d 257a 1311 b0e 3b45 5bcb 791e 8e16 72f9 4c9c 2014 9f0 ffffe617 b20 fffff225 ffffeb67 fffffcf9 ffffd1e2 ffffdc5d ffffedf0 ffffece7 fffffe36 945b 6023 3253 38d ffffd541 fffffc34 31d9 ffffda33 fffff389 13d7 1f12 40f4 6b9a 8db5 761f 6c4e 20d1 1987 683 17c0 1b96 fffff30d fffff6d9 12f3 eef d24 c15 ffffdcd9 c6e8 628f 3724 fffff9f0 ffffd0e3 27b5 b01 2da fffffbe1 3ae 2180 4069 7c6e 80dc 6789 3a2c 149f 46a 61d 1c16 ffffffdb ffffeef0 ffffe0fd fffffa3e 6b9 3a4 6dd ffffec51 55a3 10f2 41cf fffff5e0 ffffbb3c 9f3 ffffeacc 1d11 fffff89e 19dd 2cb8 332c 5cdc 5400 1d69 1f43 5c9 10db a3f fffffa98 ffffceb4 ffffdda7 fffff630 741 a05 1671 15b6 2b1 b74 ffffe2e5 2f66 fffff1b0 fffff604 4d1 fffff722 c62 fffffba6 fffffc4e 268b 2fe1 27f9 284d fffff8dd ffffd8ca fffffaba 21c5 1cc6 fffff443 ffffd6eb fffff6f1 8aa 151f 3906 3eb7 2f77 ffffdd2d ffffe8bd 4363 fffffda1 fffff9e7 bc6 484f c49 1787 809 fffff9e4 2ece 27c7 128a fed fffff217 ffffed8e ffffe161 fffffcbb 2c3a fffff34a ffffdb5a fffffb55 bfd 2729 43f4 4044 2c15 ffffeb8c fffff230 1b09 ffffda23 ffffeac4 6ac 17c7 109d 148f 856 102a 2f4d 28a3 35cc 470 b27 fffff3d4 fffff3d4 fad 5ef ffffe7f8 237 91c 33a 177c 2a9b 5608 5cbe ffffbd92 ffffdad7 1ff9 390 fffff951 fffff773 1a0d 4473 fffffd76 fffff2e9 5f9 24df 1d84 120b 15d9 17b7 1c42 b64 ffffeff0 fffff4df fffff0cd fffff3bd 35c 1484 1777 3feb 6721 417c ffffeece fffff0a5 ffffd692 ffffffb5 fffff960 fffff85f ff0 2fec 40 ffffd24c ffffbc43 ffffe660 26ef ef9 7a1 fffff3fc ffffeeab 3cc 489 fffffdb0 fffff542 ffffe4c2 1bce 2332 48ae 6a60 737b 5db7 ffffda1b c2d ffffd67c f0 647 5fc 5f0 ffffcbe7 ffffab91 ffff8037 ffff8e5e ffffaa55 ffffd424 ffffda08 ffffeba7 11b3 6a9 fffff7d4 ffffedf1 ffffe1b3 ffffefb0 ffffbeff 1481 3769 2f72 ffffef52 19b8 2253 