fffffb22 ffff2408 ffff5f11 2e36 2d96 224e 2c8a ffff73c0 3b7d ffffe4eb 1ff 59c ffff6dc6 ffffb9a3 5106 74d2 495 ffff1996 1b22 fffff207 ffffdc75 2b39 ffffbeed ffffe3ee ffffdbd5 ffffee08 ffffe41f ffffa120 2f96 35e7 ffffc9c5 fffff3a9 6464 32e8 ffff63c7 fffff51d fffff1f8 1878 ffff9f25 ffff5148 ffff5770 ffffce68 2122 ffffec27 ffffb227 fffef589 ffffb034 fffff017 3252 51f4 cfa3 1a83 6539 fffff1dd ffffe557 7a11 ffff86ea 653c ffffabba ffffdbf4 35e4 ffff9f37 2bbf 21e7 34ca fffffd9e ffffeef2 440d ffff9c6b ffff5df9 ffff7f2c f74 ffff988b ffffc78c 5d7 2051 17de 6d95 ffff769f ffff793b ffff8d09 5ca ffff6574 ffff9c7e 1a20 4f09 1f74 ffff9b33 fffff00d c8e 3493 ffffa835 2f27 1f93 728d ffff3898 40b5 ffff7cfc ffffe38f ffff9886 ffff6e6e ffffa66d fffffa37 4af7 ffff9299 ffffddd4 fffffcdf 25cc 3705 16c9 ffffe062 fffff5f0 3d8d 2f94 ffff9a97 50f8 1591 6842 16d1 ffff580e ffff2832 ffff6d4e 1a8c 4132 2179 173c 1091 38ba fffffa37 48a6 ff1 fffffc07 4bda 1f89 a1c 4455 ffffdd69 fffff61b 14f7 ffffda63 5344 ffff260c 1e7a 6af ffffda52 ffffa33d 574a ffffcf28 fffff9ad ffffe227 ffff80ac 3e42 ffff2a6e 5e2b 5304 ffffdda7 9f3 47ba 18be 4375 ffff0c9e ffff7519 ffff6637 1e3c ffffbc01 ffffcde1 fffff156 4bf ffffb21b ffffa7a7 1641 fffff79b ffffe755 ffffebd9 83fc 20c4 ffffeb0f 1cd2 ffffa311 ffffe771 ffffdf01 1edd e07 fffff1d0 fffff83d 823 1711 41a6 4843 1b82 3e67 ffffca39 fffff239 14b9 1770 6a34 ffff9f17 2505 1707 ffff8cb2 5f0e 41f2 52e0 fffebfe4 ffff803f 29a ffffcd5f 7fbf 918 ffff52ae 3a23 702 4347 ffffb9b0 34df 10a0 ffffdf57 ffff4315 3751 183b ffff88db 2266 259f 763 ffff9d97 fffff6d8 129c 5d38 2629 4576 5827 dd8 ffff8b7f ffff5ce6 fffff868 ffffc6b2 ffffe8b8 ffff4ce4 1b7a ffffe132 ffff561d fffff03a ffffdf20 ffffea77 ffff864e 1a0e ffff9567 d70 ffff2263 1128 51b 43bb ffff61da ffffa503 1ffb 261a 22b0 fffef505 ffffb567 64cd fffff960 2651 ffff508a 20bc ffff4f3b ffffcfc8 993 4868 fffff2fb 204f 8f7e ffffc219 3dc4 ffff73e6 ffff93aa ffffefad ffffea40 ffff85f8 1a85 204c 4d9c 6b7 ffffbe64 ffffbdd0 321 ffff8165 fffff689 30d9 ffff425b 19e7 fffff96f 6528 12fc ffffe5e9 ffffece3 7a7d 5302 ffffefe5 20df ffff79c5 370f ffff2d55 d13 ffffe515 ffffe560 48e be6 ffff44d4 ffff7166 ffffdc62 32ff 71a6 ffffbdbf ffff2a99 ffffd5ac ffffb4ac ffffd622 ffff5969 2d86 12 75a2 4a75 3427 21de ffff87c7 ffffdfd7 1753 ffffa1c0 ffffaa1d 38a4 ffff70d3 fffff94b ffffeb5f 10c7 1fad 23cc e46 ffff7700 ffff66ec ffffe08a ffff54ff ffff8047 524a fffffc30 2f4c ffff227c 1454 ffff4924 2ba0 1eba 11d9 1b06 55aa 4521 ffffc4f4 a0bb baa 19c7 32f8 ffffbd3c ffffc912 fffff175 bbb 1913 25a2 ffffdc6d fffff0ec 3fb0 ffff85cf 2269 ffffa4d6 fffffd5c ffff2e48 425e ffff96f7 1b85 ffffe613 ffffe1d2 ffffda18 ffffce36 5946 189f 2984 ffff6655 ffffb271 655f ffffee90 1e7c 3807 ffff7813 8e47 20e ffff8496 100f ffffd168 414 ffffae6c ffffe372 ffff3052 44a0 ffff4475 1b6a ffff9fd6 262 14fc ffff214f 3465 ffffeba2 2112 ffffb509 3773 3153 5c1c d45 ffff5aef ffff2315 fffffb6f ffffc05c 3f49 ffffe884 ffffa2ca dc5 368e ffff5def ffffb86d 495 ffffe275 ffffd13e 358e ffff63c3 ffffc824 ffffe344 1e69 1a58 1874 12e a1a fffffbfc 15bf 3d2c ffffc3cb ffffbb4b 9ea ffffe19f ffffc7ea ffffca32 ffffadd4 2823 2e71 152 ffff7ea7 b9b 12f7 12c2 fffffc08 ffff91c8 109e ffffdee2 4524 ffffb704 ffffef06 ffff5721 ffffc6d9 2602 76f6 3fc8 fffff428 ffff60b9 b9a 35ba ffffd882 1bda 64c 16ef fffffaab 5df 21f ffff8919 5 ffffc547 ffffa414 fffff366 ffffcf79 3990 2dc4 ffff1aa5 a76 fffff4a5 5d2 fffff7eb fffec1ba 354a ffff51b4 131e e3b 3ce6 18d4 3cee ffffef04 ae 