5a4b
2504
37ca
ffffbcb4
ffffe348
9474
1783
ffffde20
ffffce48
27c8
10a9
1e18
ffffeeb6
3a1c
280e
f0f
fffff025
1a29
ffffedcc
1818
2d29
ffffc5c2
fffffe23
41aa
2724
20a
fffff291
ffffdfb2
e16
3f59
39d8
ffffffa6
ffffeecd
ffffce9b
6b1
ffffae96
fffff2ff
fffffe0f
ffffad6d
1ef0
ffffeb76
8875
25a2
fffff7ca
ffffed05
359e
6e1d
ffffb735
ffffe65a
fffffc49
